0881058300818580
820201000180878a
8080800703840501
0000818306820280
84818500830c8701
8408820d00800082
810600008084028d
8201800400020101
0301880684800802
0582830206830403
0080828002008200
028906800c830180
04850b83818b8301
8189008200038386
0083818501808301
0484010004838201
0380800003028383
8000068388090105
0100058587028201
820b810489068281
0481860004818082
0401008b80830407
038100048205030c
8102808480010081
888c850506918180
8496838a0a048587
0584028609908105
9604858393848080
87828b850e098084
85048383800e1f03
0a049a8981168581
9305848002881902
888c82058c858087
878c0501838a0401
018502020a0a000c
8e04028b86058500
8285890305800306
818c8d099d87860e
0488840288068c02
94829d80890b860d
02838886970b8489
089d818710840d04
8d02068e8b8d858c
8981858a89008880
83080e831a868083
811a830683080680
038694828e0f0405
84038c07040e030a
05888306098b0506
8802828b04898100
80098b8107880007
838b810a80830988
0688800585858a88
04078404878b8000
848a810300870706
050601830b050808
8887878280070908
818b810282018303
0107838800838100
868b810783838605
8605850500878683
8307080507080189
028685820a088b01
83840b078688070a
008682870384858a
8689030a8a87068a
018586850b078683
0b850b0701878306
070706858a86028b
02880385098b0880
80038a8304020a81
08068701010b078a
0b10048484838a03
8800888806808185
0784848409808a8c
840a808b0d85878b
0389858108859206
8c82820b95078389
0505868a84838194
0d84078502018a85
170e890182058408
8607820702028280
850804850b828783
858985010b8a8380
8a81810200039382
958b01829f820403
8b1307058581028f
0c868282048a8e88
1a1504830e898701
828a818503048a00
8705068281878306
88000a8c11888789
038b860587848d83
8f88008488860781
0114010605858d89
0f0304878b058502
86848c0080890506
820689860d080403
05858588018a0409
868a8192838b9584
088c868b06028205
060886028b880189
8104050101811084
0902840683848401
050b950501880580
0802878a25818483
0386030209848503
848b008484808d00
8186808f0b10818b
0280078497938383
8c03068985830902
1206030883838384
8f129201850b140e
1909808513038013
818d020886810014
8d8c8789808a9606
118c858703000383
058280008e888386
0100030a02838680
1004008280010005
121501018401008a
8280848586018586
87890388020d0201
0305818f14858f03
05920e06888c9588
94008f0b8a868580
010d830007058e8b
8105148784018307
0f19088485068287
0089828800870185
8180038488078008
01008084008f8402
81910a090081938a
8b078e8490068f05
810c8a010801888a
030211868d078b09
15170509088b8090
8687878d00818480
8b85838c8b818988
05098400098b8006
088e0204048e9984
0005868488008b81
880f1084820a8502
0807188c8c8e0086
0f0388868a838a80
81808506020f0981
878080850783850a
828d008208888800
0181898781018e81
9401820793840180
0004050584028583
08030486848a8981
0c1788080c048706
0585870407040600
03060c0205878581
0b000a8312818b80
0402878001008808
97820280928f8b05
060c04038183008a
0902000184098408
1e26048a85868009
8401018b800c070d
0283060502078105
81008b9004888403
028e840083078c84
8985860600020101
850d800903050088
1088808283028e02
810185048400830a
8080038000858481
800507878a850101
0182828001838180
0186800100060286
0306858204038387
0606018001868300
8507008608018206
058305890380038b
8189808704000381
0101830b050b8800
0005838485008402
8705028401840107
848312058184010b
0282000200060880
0b84020383820581
8202020401000080
040b010284820280
00870d8405860583
8080800405000484
0101800003828281
81848c0085000282
8b82858181008484
8180828082008283
888802128f040f0a
0203850386860180
038b8e0b02110a0c
02078104040e9288
8b06049d8b0d8181
83898385868c920b
0003060a868c0509
028901098d27858b
9583860b8f2a8305
0488078205030707
8283028687810e9b
80018585010f9509
0080119180838604
85879307908e8900
1a020b1b8d8d8e01
01848107061c8689
0288898000868605
0e828c0292058383
028305060c0e0a93
0300918284819185
0789008a05978d04
098a8d0182858103
06018e19040b8005
8b81828f031c0183
858b820688850488
08828a8780898887
0483868a00870389
06058b0a808b0a89
8006018a870b0b07
040b08050a030907
8685868a85048203
8109840780820900
868a008802098189
89870b8808070901
0801800985880501
0380010087888101
0a8a0a0b84008a88
040a0303028a088b
878380880b850905
0687030501888100
0489080b848a8582
8b820b8287800488
8701888900028383
8184868501070b82
84850583060a0b83
0804018008090105
038908828701068b
8b05898606888108
0a80860987950301
8a020b8689050c06
0406200701028408
05818e08878a0809
8a83868f03838a06
8400020c8d848700
0203870280008989
8402058684090e05
8390830604990503
8103008e8f080587
038e1c0481088302
0a81808288010306
8907038708058380
8c80010c888d8006
8303820087060281
80880a830c0a808c
098e880201918187
8681058886838902
8a8f180102068e83
048591858c930583
080509900d030600
8683868000840004
0180010601038709
820106870201108e
0608068f83848280
8f0402060b040a00
8981898600860200
0203818585030509
8200840181838580
8494028408838680
8f00840482868510
801008868b098586
0e02818990878d06
0600890211020507
8d87838289840d83
120182060085810c
8b82868503018f05
868d8e870f158681
870304058a870e16
8609068581138502
01818a01830c0007
8683830106808a84
83910103818f8005
02058d0509880e05
078c85839181a003
018b9680060a8607
8780820a998e010b
85090503820e050a
098c840703020800
01040d8086880385
850022818006050e
0208951187030906
8186068b02060685
020409078c840700
070503008c01030a
0c828d01058a0a06
83868b0306870705
83000e06850b0103
800722818303860a
0d07808083030102
048a018386808605
00820b038c810783
06040a07830a8681
0183088600810001
8283820486848404
0104090083818188
8b092380020c8686
0d0383008b8b8705
8583038405828602
870302068a870c01
8008858a8c0b038a
0d8a838c80861283
078b8a01059b0688
8887830183040107
8206260101108304
84808784038f8086
0307868e0b018607
8d00008087068203
8c09058986098208
068a8281078c0201
098785810b8d0f86
8b00110504820089
0b8628888a04810f
020b0409008a870b
8289838309808484
0005040588078700
8805800687020080
83028802848d0087
04988c8381948108
84860e0307028387
048c148481048d09
09028d0284038f01
8708048a81898305
8c0f028403028705
868686878e098407
09858884808b1081
8001030704808101
0302818103828783
8404048182820081
0700018283810081
8400000288848c01
8685000285030106
00868506000a8391
0105000881058287
050288858804070d
088a840084820803
08068c8204868709
8a83828008880e00
030181840b020004
040602858181898b
0302808200870380
80018401858d8084
838205800a810381
0380010409098681
0387020182050281
8304818187018505
8181010184818a85
0180000381810a06
8482040801068015
8102800109030205
039508058e000a8a
849f048001800419
0204818b81878086
0d81811c81818009
0b81038d97070081
8495050490079d00
01860f0486860283
840997060707870e
008b840182060d97
018e87890a810514
0581828809890301
1500871e8c02078a
8406850a85838b83
870b04031217830d
92908d0a84050989
93069584048e0582
818e89868287818f
8190818900078b05
0a8102080a078206
09848a1e91800199
828209898a038487
858702828c09870d
85051b0a01040784
8c03838182900104
07840004808a8307
00070b0a00038a09
0909810a8702848b
8882060b0902828a
00060806840b870a
05890b8008890587
8306860081008180
8301008a02820a02
030b020905080009
8b88030707828a08
0201858486078006
8b898285020a0700
018085080a0b830b
82038a0a86048787
8705870889038480
01008a0784860486
86890406890a870a
8082888301038604
800683068b048602
87860109028a0400
8587838b0a828509
08850b8b0807820a
8780090684088305
0301098202098b87
968f04070a85060b
0781888a01868185
0301058503858182
06818b818c070902
010706040a841400
8386888303841005
0988848589058482
8b890f8384000a03
9198808285088303
0283060281058804
83028580028a8301
0005048582080a82
810502890c040e02
0908058504820982
0e06828105028b03
0082038500830805
948b83890907880b
0f09088207828480
82010003028e858b
8180870182058303
820b030607081281
1183000002030389
0b8f038601848582
8806040182050a02
8d86070a08008105
0092808a018e0802
020285808c848787
848b090082071605
0404028784040b84
0a8b808c03810887
0205090686900209
81819a0381030785
88808285010c8d0a
8a8302010783080c
0507870605878308
82910a828b0a070f
82010d8c04040f8b
8788038405020901
87050a8680850087
0303918386810a8d
9b85808705878a0c
828b08828c060111
05838f0a8a81878a
8284060c8582870c
8102048905850882
0786838203840a07
0686028380820300
8c01920900070b80
0c070683808c0589
0382828107800102
818006840680800b
0308058a088b8602
02010087868b9286
8006860592820206
8483040880048c8a
070f01018e838085
078d03048c81878c
8609058e8a82808a
078807060a010d81
840281061f8a0280
8401828b8b820280
8905850480810008
8108800d0007938d
800a8c0987838782
188602000c868b08
0401049203040700
03820301080f8389
828a820a138f8a01
03818a898d83898f
88050588870b8604
00040a0305009387
0002868385838d87
088101828c040380
8d8a890600028402
85840d010c008c06
0202008714058d8b
898c850501038906
8e8c8c818c818203
89068082870e0988
110b86860a008208
190c880283038480
8703878c00828309
0607840486890385
8284838615868e80
81868c0087098384
8682858893078008
860a0889870b8688
0084838483828283
0b20880300898387
880786840a028b80
06860502808d8a8c
0807878218888600
88838287048a878a
a08687809a098805
020a00810300018d
0406030600059102
8285820506828086
0183018382818303
8606040087830680
0483800201058386
8586060885830681
0508800602810904
0984000480060200
8482800100818387
840b80808983030a
80080c8280050683
0989838104090283
87818a8002898202
04108304060a9180
0980068602028b86
9386868a0e868301
0904820103848483
0104808405820181
8485830082830180
0003048007848003
020a020487020701
8106820081018083
8d88880091830581
9100000480808081
8482038083048080
89031081040d0b8e
0308078485828401
01038404098f1089
018f838595910609
01068a8a0295018a
0b880280820b0f01
0a05030483080185
830c8690001a0187
838a048384930987
9594938706848306
0d0488830901000f
040b818686840c04
8385068d058b9580
0a83098a8c860d00
0e1709108094860e
8c80809112130988
8783040489148285
0102020001018200
8602828003821011
020d008602858587
84820288858d020f
058a81029980018b
05100d848201820b
800d0086810d848a
89880a80010b8986
068a058702860b81
09828506050a0084
8b87090b0706050a
0086030a81050007
0582898500038b02
0580048a0989858b
0a02828108090302
060b820989838903
0089008684058b08
040608030b048683
8a8b888904040308
880b0202840b8388
0b858a8a87008580
8300850803078788
010b0189058a0209
050500090b850781
8182818a08058902
8604830301038000
0385038104848506
040b820a84028501
0b890b0505060506
090a028601050987
8687898780828081
8a0402050517090a
80808e0804060401
09808d8188888803
018d048906858408
8209050e83040e00
0706848400830084
8803050008820585
8386858803028205
0e0b078505090085
0180890880800384
020c8f0587858880
8b080203860d8307
8000818300890301
0906830189028005
0e04020105800c86
8488058185878684
09080886051a0485
0886880a83040307
1108900989048301
0387848a80088308
02068a0d88060a07
850a808581808087
09858e0383020a88
810b078607048584
8b0c09838d120406
818185820504840a
0487938407028481
8187008b08829088
0c0d8412858b000a
08880386830a0286
0104888702038080
0386018406078688
07070d01000c8405
8201030902010889
808390840503958e
81898d80830c8b84
078980018a018904
04010805810f0685
86058d84028b0683
07820e05060d918d
07820c8981160186
8c11868780898501
04848e0c84950385
898c898189050c89
08888b0a87020b81
82840c010b0e0189
0f008d00888b0f0e
0782808088119588
01850281808d0003
0802860080060304
8a8a188389038883
0a03868904890888
048f008781028581
8c0080838f03870b
0286010203848e8a
0201030182100c05
068f8308059a0881
8303098780038003
0582238384858703
0706830502040503
859802838a040805
8b83890d030c0605
8787828803888200
00000780070b0f86
84968c0a03968781
020303000d858185
00841f0c818a0281
1102830981000788
868e869105018489
8a88000000038584
888a020d88018c01
838e8308020a1b85
00878a8484888b03
850103058e088809
80812a0186088004
0a83910f8683860a
0888058a06880685
00838480058d0603
088a040101848901
068180040984878d
068e8101828b020a
8b050308038b0081
04871b0501868180
070486808481048c
8a8185868685028c
848d8105848c8b04
0187800802018903
068d028680098387
86958d038e8e8509
8800148a8c838a88
048f1a8a82898804
1011840002030a84
8d86808b80060104
008c010584050681
8185848985890381
8381860284080002
0902058385898083
0186040403848783
0404000385020180
050400860b830800
8680078081840202
1106028900870183
8a03028703850080
8009830308878087
0c0d840204068500
0801888184830488
8581878c08858401
018d840300808386
0888830402060001
95870201810f8e85
040d82848107118c
8385858487808383
8102828406000287
008606840a090209
0385000585048002
0085820083048785
0105000009000000
0504010700860701
038380090207900d
0005018009018000
090387878507028a
090885840a038984
83828a8181840b07
8a0605868a800687
04058b878409810a
00028b0a060a0983
850b830786010509
0b06858705008202
850008040b04060a
848609850a06068b
090989898a02840a
8a04868b02870600
0680870708830006
06068105898b0285
81868b8406858508
838107080a0b8487
0485800401030101
060a850601860185
0787008485880288
8a02820988878308
828b0b8b0a060185
8984850a08030205
0781818780828582
8b82068984878281
0987860809820a03
89070807040b888b
828586008b878885
0106868884810186
87048b81858b8100
868185090285858a
03890b068a060400
0488888883818980
070a898982868501
0088840085008687
0683878200898a07
09890a83078b8406
8b018707088b8b88
098b800b89028a80
0308020904098081
8a098481048b8584
0a898a8a03088b80
8a850088000b040a
850a030906048807
0907030908070207
0800008887008486
0005070a03000302
08868800008b0b84
888b8b86058b0607
1f14840c85858689
8f868602080d0281
8a83020c03028387
0e0a008101848104
8b80008e8a0b950d
868808038688858a
8a87038501808988
09810f0182868183
0d1186070707868d
83058b03860b8087
8d050a050d068a01
000708860c858308
0381860484838a80
9c0a010791830384
8c84820504839190
0c851501868b8082
2422068884018084
8208828107828488
8d02080489040681
020308830d838383
008581028382968a
8d040300938e8888
0e01020306098689
0304178302820803
82830400828f0101
078181838984808a
090a8d8383850684
0800068192808d83
8087080d8705828c
0f80838406108b8a
050105050e060281
0408860900830104
81168b83078d8484
1202018389030c89
838383848a85098b
000080838c8c8489
8d8b0a0e060e0694
0983078d04890701
06870b100f858792
8006010603898509
8213968406050088
098a868101020386
8b068010810b0186
058a8e018a898f88
018910080d05878f
01840a8d0a878985
0585000219088a99
098487898a918409
0510838d0500828c
888c0405858b010b
1400040382830303
9082829302818702
048600030590040f
0501840b9d098608
9205048108820083
0c058c0b010d8b86
8802848405028880
87848a848183000b
14810a0581838b0d
8402919100840206
068581821488090a
820b018092090201
9284038105008286
04098809810f8b8e
04828403820d0408
88048d8a878a0003
06810f888382820a
8e05818e0b828805
0b888a8317830203
808300828d0a0605
840f021185878f03
0207970081088188
1219078584868887
8e0381060c060583
86890f820d028a04
0c008b0615878e0b
0490048682869681
8e818b0681858680
0405808d8587818c
04010b0587018602
2112018282848592
0480048a02080504
01050683070c8682
0d80870004888388
85818a8b05009907
8f068c0391800084
8609048b04040083
0d8112030302900a
1d14818903098389
890884090d068b82
88830483830c8a88
090687040e878602
058b8a86008a9809
92008b0587048a05
8504040282108281
0d8709810087880e
8301810488008101
8486830003848280
8b01808680830603
8185808082068304
0382030c01018186
0201870604808502
1206820305848987
8608848405008383
120d868a85830488
02008b0384028404
0789858801098604
8508870283878288
8404800485040081
86090186050a0782
9e82820c87060303
088d020d83858502
8707078081000082
8005820500800886
0705870901808289
0282008506000a03
0007830105808103
038608818d820001
008681828a048201
8184818405038085
0b8185840204038a
058683898b888409
848a89860a078409
898305828985870a
0a80818985028305
868387820b030402
8105818107088b04
0705828489820406
010a808483888088
068a09080b0a0683
0603828784890004
8008820780838306
8504050b03040606
8200038707018a01
068987818b030481
83888b8a88028002
8485028b8a070a87
03858b80040b890a
8885008886018887
0580040989070708
8303098a04830288
808300048a858006
0a070a8b82888986
0a81038a0682828a
8783040303810508
0700060787090a85
8a04888907830983
808006888b878786
8a8b800306010202
08000b0b8a080406
85870388040a0389
0602828102890b85
8408008186028308
8788060200000606
09818b810a070605
06890a8986008289
8a89840680850285
090b81090301840a
88860b8a8a01008b
068a868603068304
8983050884828b09
0207028a02860981
0a07090403890087
820b050304878a08
070500010a838501
890a000402800a07
0a83808a80878002
0b810b0685088385
0089010e878c0984
068a128e8d080c81
8181158101008a82
07888c8483870a11
0903078507830107
0988038582800000
0a8386870c118784
0580040486881186
0c80028104941187
0c8703878f85888a
80860c06040e8682
8384880109040682
88868981020c8404
058d0485078a0b03
84830608850a8285
0f0a048381920100
0d84810a0690050a
0d8105868f828102
03071f82800e8a87
0b0f0007888a0582
8201809405828604
8a80858c078a0682
0300868001100881
0c80058086940885
80818880820b1080
038600830c841082
0b889581068d0586
0d0308840c0e9004
8584040b8103088a
008702020902010b
84040f0307030a00
8b0e840583288100
008385100d030f84
8780850217800300
0f08901706920206
018103861c1b8684
82930f0986130080
8a860382050a9207
030d8b830b810404
800d89860c308000
02008d08090f0503
8707068715800386
14029511118f0406
850402061d1d8110
8b9d0b0c86038d02
938389830d22910b
910e880f8b88040a
86888e8c01328114
8388018591899e83
85080c8604808182
81820a87098d8b83
1007938d01851189
890c85068b8d8102
0285818589058209
0b0f8b0383858510
010c010a831c8886
8d0a03020000a101
8000168001820306
878019868c908b08
84809a890980088b
8406860e85820209
82888101090e8a85
0606910086920206
8287020585158b03
808104858008a984
8180088a0b0a8881
81841b06048c8202
0f8c9a050d011487
040b010588898c80
0292078280138081
0907920c8e980207
07868300851e8587
08868e0b839a8501
0384148a8c800802
8a861d0980040603
0786920d08880581
0602898305028488
038a84050a828783
800301808b098582
0202808804040c03
0a83860a069b820a
8082008988000907
0282238789098805
0781930a89840d0a
8e80048a88828484
0587840888820701
028d8705030c8383
0c83820106838307
0e8c830605a10903
828b088600000601
0380218483068402
0b828087028f808b
02858392878a8a88
07840c03818c8b88
0288060106088e82
1189860180068189
0603868506830488
0704828601008589
0704860182030100
0502800385000787
8900020384030305
0701810003040305
8581848102018a05
060286838b028287
0614800a81088983
0201820003030707
8205048401858400
8486020a81838a07
0700010981838903
800483071005818a
090c008686000389
03008b0502058580
88050b0282818088
0604088301050183
0683828603098385
0086870181820001
0483818001810001
8085028482050609
000b840300010a80
000600870a838381
0307060307030382
098b820609068b82
028900038b860000
84070981870b0907
070b838603038a09
0081050a8a090083
8a04810b87018406
83800b8b868a8008
028304050a0b858a
0782808909860b88
0906088108818103
8202840001828588
87868000800b8887
0282868706828781
0a07828888020788
8887818506838605
0689020101888889
880b88848585020b
0004030901000a83
0b85838080828509
010401858a050984
0283898a0000878b
02850b8805818101
8908850608090b06
088003830984000a
8002050889010687
8309890484040584
87870b0802078108
0b0983890180808b
820203880982808a
03810b00020a028b
0609870985838a80
81820b8285018581
8a83038804038a08
80090b048687888b
080682820a880908
0003888587090685
8400890200060909
868802868b030302
090907820b060a08
880b028004018688
050702840a0a0904
8207868a00000507
070401058a09090a
03840487818a8281
0582860900038482
8583050701088709
880007800507808a
8b9104080b000211
0a010681038b8988
850581898309870b
0205830a89860786
810a0884820c1207
0a01838c20020083
858e84028c84800f
8587028501850506
8d97848204808805
0209880508818882
870b880789008701
8105858291070a8b
86000c820b01148c
0b85048a1480018a
0883858200821181
8880070a82020f85
9b9c0204020a0212
0c07830189068207
86078a8707080400
0280830a96828382
0408848700851683
820703831102030e
0586828c808b0a0a
8c048a0f060b0f05
1604808900038781
818a840409030209
0785098607848383
0480070288878100
8080068087060000
918f800788048388
0007838181828781
0c070d0a88040902
0611070281850182
828a888383848801
0187058481860282
0484800501800088
818903840285870b
018689068f828108
030f06018d858b8c
118007058c858303
1507808004868890
028885030081860a
0188070202858401
8181080106040181
838389018981940b
8b81840794090180
89028482800f8b8c
04840a810305870c
0b13860703000c83
83840704070a0580
09050b8481878301
05800d8104908484
8f85838884818c05
898505870a0a8103
05070484870c8c81
0701008580008787
09070406038f058d
008a848306030885
068c8a0902068782
0e84000b038e8d8a
87088983940a098d
9785838400020380
8b018082810e8a92
08078a8303858e02
0919000b03858c87
07838b8407008580
06858c0281000883
0507840b13099181
87078202830a8285
8f018a9283048e85
868a0500020f8a8c
04080a9100878f06
0c0a888a81018106
8607868381058480
8707828100860805
0200880000010500
8300820907818c80
8504850289018803
800886048a839180
840e060701820882
0b03090306830681
86058802058b8902
868004818f060a86
8109818801030802
098081808a00860d
0088030181058503
0000838288068b01
80040c0000818080
0602050a0c870784
8804058601848181
018d1183048b8405
8803038509860210
0200830b85810108
8589848002068083
090d058380858184
0407080302870110
0001058002058181
0389038005838904
8782030180800e87
0500038281828180
8087010882828404
8303820380820682
0d00010008008281
0300860182810682
8109828283100680
840404028000058a
01020a8701818580
8804050206000104
04120a85800b0480
8604010603008380
9e80080783830304
8708080184000a02
0805820304040004
0204028383810305
0402110582038203
0182038709030183
0305848003870006
828b828582858384
8500830404018881
8080008006010002
84020a8002828284
840b098908868606
88050389078b8507
8a02820581800989
08060783858a0984
8406030084820786
8a08030786018a88
8408078206048900
060484048a090400
80050700880a0583
0a03038b88080384
0a0185858b870988
00070885068b0105
8a0384880981890a
8980840807028088
00040b0a088a0607
0604878501080801
010889050284830b
8389838188028605
8400850001070588
03898003008b8a05
038b830708800102
80850a8507070108
8803068109830706
8289000203818409
008088090b800681
01088a8088890103
050b898689090b87
8185818a078a0a82
8103070801020481
8b020a8689088201
8887858980028105
0607080a8b010586
8803080285048908
0a06848202880804
8787058a04058b05
84028a800a808203
010183810004850a
81840b02068b8904
02828a0905888885
878781078402050a
07068b0901840180
0107870608050509
098b8683800b0187
06808886848a848b
0409898207078888
87888405858b0881
810b808802038a88
89110084800b8481
0285820986060882
02879f8383028008
808a108c0b078e8b
800a0d0e05860808
8607808e0d098983
85040880858e0a04
0608890684808d07
020303880c170489
88038e0386830a08
08009a03808e8302
818b050682808505
0406800684058105
0182098385098506
0201090a02910685
0705070785008401
8681078b0d080d80
848b88820882860c
828d9b0589840382
9089820c070e0681
00840a0a82008506
828a08030b060909
05860509038d0785
8e08850482838280
84870085828a058b
060a078400860588
028a14018b808381
0d068f82078c0b02
0086098109830282
8b8f00029002878b
0502828605038681
83848409078b0604
048c83028702008a
8e0a05809006028a
010c0e8681050401
0104050a89888180
0306828784050a89
070983838c848282
84850c0a0a818002
0282808009938000
05868b8383820202
0302070583048206
840118840d048f8a
07029204878c8401
870d808d02868981
84050384868c018c
0782808107068a8b
0284858003870188
028d8c06049f1907
0106028006870d01
0203100a8a040f81
08078c0380050707
0b87040404070000
818b00858d058205
828c84100a030280
03808c8582000201
8189010485880e8d
050c818704078086
07010e0d8184068e
08048d0488020f85
80898605080c0400
8994020b0b040181
0685810888000006
0003898200080a85
008c878304841286
8106818188828600
8a8b188007868180
0389928105850988
0b8f069182028486
8a8b808009870300
0a80860582828287
0506030c830a040c
028b8b0003928004
038d0687018b0382
810b0d0483838303
00078b0205840104
8501818306028701
8608808384050400
828705078a838382
8388060782950d0d
80898200038b8709
078c0904888b8e09
8082108501838484
0a018b858187000b
900f810505028c8c
0104870006800884
8982828187010083
0407880b07890187
80838f09898b0e04
0083038688048c05
8b080589840e8286
110402068490810a
8513038280810485
87050b8985908089
8d80048587808a8a
0c018b0406998681
010480020584820a
0206018403838700
0107850482878287
0607078a84840704
8787038089808101
0b01028985038000
850a800504870103
82038781030a0102
850c888385050909
0006050302828383
8a01048780008306
85878300000b8c81
0404860386018084
81070006000c008a
0382050800040483
0a8a8c0581868186
0101068782898000
050e868286010804
0709808182008182
8188850083008009
0201018308028107
0880810c84880502
08088281028d8687
8004828b01830288
8603050681838a80
0a0586080a020184
0887010a8b068686
080b0a8505020683
0806828502840888
06018b8b8284040b
080184060b040203
0605820b00848008
028982008b800282
02820104870a8487
0b81820381850707
820905030404838a
8989008506828908
80810600808a0581
8786898587078689
8481820a04878602
0381028382030587
0886848002018409
0681028988030a87
8589090a02028183
87800489050a888a
0907898687800102
85090b8802878200
8380098582868802
0c020a8404870a01
0701018105088e04
8203050081850e01
8003059102838505
0184840588030083
01048487840a8e88
090b008800040086
0482870480828880
0807088388838400
8286140202020618
09800a8e82812285
040d0206859a0685
8b89058181828584
8119050802828893
110504800f828680
820b03898100820b
09018d0f81118706
0104100785120d05
0b161e0388062b8a
83038208059c0589
8f8f04830d9a8509
8a040a118d000c90
010a02030c019105
0006860580070913
998a070483810281
0e06038504820680
8708058f83040c84
8a8d830585021208
0482860806051681
11020f8808078204
8793820105870610
8684878709850402
89888b0989848501
0686080408908587
820a8a8b07868106
820d090684070384
02020a0a06050c09
058082860a00010e
058c83060291090e
950c90010303000a
9785018287078310
82000505838f8a01
0083018c01828583
020189848b0b860a
8200058902801408
1106060215060711
0185000603900411
8c028a0885018604
9093808407028004
0b85018388010b88
0c04840100848203
808b0b008a0e1702
0812000c8503078b
0688820915860908
860084080585000e
0101940082058206
8a91000680850801
05828487008d8a00
8401020001828a82
828882078a030784
0004080407881385
1402098818810980
0b06020080820105
8e808a8402021005
958485048380060c
8e068081088b0c8b
890e8d8006860084
8201808c8a83050c
0403860683070e07
088f020a0f810f01
8a8881800400090e
8e85920710810b07
9481050b85010015
0f81080785848482
858789858d870888
88820103930c0480
020182858a0d1281
080400000401010d
0c87030602810603
8806820d02070084
9c028804008b090f
0207040388810b86
0582838a06868881
830482058c861304
000e050d88838308
120101010b040403
038e038409840482
8304048603010403
9c83038281060105
0a028404888f8809
8c8391040b080901
0186000298110505
020e82848c100b09
060a04800f028806
098f8983008f0483
8283810607078409
0518828b8d880686
8986030507828580
840b0a8604018b05
0004058302018a04
02810b8283059003
028302128c868f02
860a858284869603
82020a078205820b
1606898883848287
8c898b080a84060a
8d09060704050400
070b888486848e8c
8184860388068b84
868a840b81818283
0913058409058105
03070e858483890b
1d13078a0a8a0392
8f80870300838989
8085100489888881
02040e910b849280
8301860381079907
89838082808c8f8e
09110602810f0205
12020c8d84838182
8201068104050689
0784808385860080
8800808604028082
0206810880008880
8188058481858108
0401008301028083
0f82028004868380
880182800700080c
8501890004040284
81030a0786058184
8282920288068c83
0a09860300010d82
0809828a85860888
0681888781049003
9101070004828605
05088a0205821401
0504008786030205
0c80810281830405
0201950c81800306
0286820481808583
86800e8304940780
83850d0b8a010085
02818106840d8103
848807868b030080
0180030205018606
07090b0583850980
0804880109020a89
0b80068087828a07
808388828a840980
8800018803800100
8489830401040a02
0283038209898006
0303068b810b0580
8004860b81020189
0205818406050107
02858a89848b8007
8b82898881040400
0006888685878680
0b82068202818a08
8b01878182008509
010106038285888b
840006868b030402
0786890603810b83
030684068a8a030a
8303800481088386
0588090080860181
8205058909880884
800909860b878785
808e098883848304
01850a8503038584
8b8b0d8681818604
07028200818c8980
0302830104040384
8404030409880284
1085040200030080
0112858085098282
8b088c0c0e868288
8501820382871909
080a088783888383
8412870a03000200
8385118987840082
0116840c82030c81
848104840a8f8200
0606950000080681
0e16900a07850303
0509820a85811907
1e1608068a098684
81838382880f8617
8b97158486818187
87160101840a8686
9e10840683898187
0583a10182210688
8d06080109028e88
8100810f86830685
0081930185020389
82010a8184810204
8007811503830106
0386808507070582
0200030486890a8b
80870a068b878c03
05830c098a000006
820384108280070c
010c8a8006020285
0388070380090209
8286010209838986
8408818389848000
071a0784068d0e81
82008307890a8a07
8306048209140186
0403858a1105000a
0381930487850e04
84040a090f808782
8108050408038582
020a0186820a8187
840a010300050287
8b0c038101088306
8b088003860b8c05
8d858f0806060283
8588a48304000083
80900c060402808a
820b0b1305838801
818600020585808a
0a0104800507010a
0103898905868881
02110b0181078b85
8205010609810789
8982948001830582
8a830d82088a830a
060c100c81808589
0d84810208818e02
0201840581850b06
8689868a85828b06
8010028604818200
098386090a03080c
8100958b08040305
92820e040a860300
0b0c0e1701830409
0784078900090001
8404820b000c0301
030503840b059006
8103038a83150082
8200820d01060489
0182a08708840687
8d860f8c0d810380
0002810f84850008
04058b8681058383
0303800d888a0087
8e0c8d8602018780
0013038487160503
0083808607848788
8384a70a88840802
0484068d02128b82
8182060e84880208
0d018004880c0582
0587810384838584
8b81048582048303
85140b82810c890b
8689888707098501
0504ac0b04870003
8c89078110130506
8601810603008500
81028a8a82038101
030088030b020a02
8e82028902098903
8487898b0a958208
0107078180070b8c
060a2089050c0100
08009009008a0d06
0983028009030a88
840881078b000689
81828485830d0481
0b88020886088309
868b9004879a0186
00840f0682838703
8404178701020d01
0f00800781890780
8901018907088283
848585838c888201
048d848a0604028f
058a898881880800
088185818f880207
808c078083820a86
83040584830a0088
80808c8b89000989
8600038e0d828901
0280050c81948501
8b86088c08098305
0b068000048b0687
0381848108000401
0780810104848504
0804830105028402
0303079281000605
8686068185008403
080e008790098704
8303008306878207
0301898484038200
8f00080987078104
8280860200010784
830d029003100306
0680028186849602
0602048181078903
0a8f010a93010284
84078c83030b818c
0c81000100840909
0284018783098205
010405838a008303
0586000380808281
028c058301018180
02818b830301020b
0988000182868585
030607860304838f
0705818108860688
03898504878a0786
09818a0b0583890a
0b07878004098203
8686850183858007
8a858900080a8109
000b0b030905010a
09008401068b068a
03038b8103010a05
8103848604030681
0689090180830402
0409890a8b8a8b83
8b8a058686048185
0902068480048400
85070300858b0406
070a8a8080000600
8406018701858502
8889000900028287
8903098886000b04
018b808309838281
8085090301830985
03830004080b8984
0a0b82890508808b
058402818b8b8488
04860b8187060688
80008803878e8088
158686148100068a
8287890685018409
010c028111010f00
09880304040b1a0c
8d01059286800401
068a0e0007028183
0788058481028a07
8401870782808c04
0901900a8986808f
8504970088828082
040a0204110e1888
058b898386080a0e
8e84069504870583
008b070981878103
0704030389038004
0088890f088e8782
0b84940f86818400
888b8c8189860783
108000851016218f
85848709051f1b17
808b8c91078d8483
0e000a0e0c098588
81850485908c800d
8c9f820688808210
1103020482818800
0205828783810b00
828080048a060788
8101090781050e02
11010a0904890609
0702810886850e12
8f8592060105060a
9494810a83880c03
80838f068d8a828a
0687050201878202
89830c8190880f07
0786030304840785
0e0a810b0b818302
048303080189030e
8484888500850d81
8f9a850880830a00
0102860d01868792
8d03838084888702
8c030306948a0a07
050d830a03851209
1d0005011188870a
0204010408831306
898601028a8a1081
978f000202860106
8606838400000587
048389078e020a89
8689880997860802
0502818801010184
0487830381828080
098102040387020b
02040401080b0182
8c9a8000828d990b
8188098384820307
0b09870d03818309
808387808a800e89
0685838b81090785
0b0204828488920c
0083040280828506
828002810280020d
8d8b808484098b10
11048780028c8483
140e010d060a8486
0002888284028581
830682800d070785
0b8c8107010a0783
018d0c0a00860005
8d0983840a068002
1a19820182828501
888a84850b0e8381
8a8501810e8e0701
8704858707828302
8a88008582868b81
8c008b839403008b
8685038600010381
0807830700860282
0e150a8083080281
8a00840406040601
0100868706010401
0a828d83038d8586
8403808600048c07
8b03818190030105
01038b8984028480
0681868081048902
1e13058181018d03
9086870409060309
04050d8004820103
040402830e808c02
80850a8007818803
970086878b070c8a
810c81828b078c03
8408880a82018088
1f03090009800184
0504870483118e01
86840d8709078101
0f00080201949183
8403868583838d8a
810d820e84028503
8108020181068483
060f0f8787840082
1e030e0508080686
08828087040e8888
838d0e8b840c0881
0b810281148f8682
898a870386059284
84038a0f87068308
090e8803890f8680
850c0684008a0409
2504058101051288
0482880904088282
8b800f858209078c
040a08860f888b88
8a03010783869087
89058182880e8306
0c15810200008a81
0100099000850409
8601070785880402
0782878383828983
0086088000820d86
8481018286020386
8681038689868880
8609828400030301
0c01030409828381
8382810504808607
828488838a9a0c84
8784840301030604
84040b8685848283
9305068388820601
800d038503820f09
8b89860307848480
8d8806818a818980
8109818602008487
8e81038303860180
0600820886820384
01021009830c8001
8686028d81000a80
0300018207850900
018304028c868200
838201810484000b
0583820887018300
858a8808880b8408
880783048a008701
8283820203010b84
0400840586880308
8401850404858106
0586030a8b0b8902
8784030008850000
0387028b8b060209
818005848b088a81
8a898205018b0b8b
0501050100800a88
0a0883000203890b
860104058b058584
89800109848b8100
0108898988858207
018401080704060a
0101018a018a0283
8004838000048406
878a03870a838204
810902030b84060a
8a09800b82088b00
8801070489058609
8182088480888b05
8981048609838308
0307810202818203
0103878b8d058c83
0b13018115828a04
018f07898508820e
080a0c8003948a8c
01081081008f8382
a00e83858486010e
8781970880030001
86808d1483800981
02838d8b02869082
8219080611058885
068b078a8580830c
00180a08068a8986
88031182008e0185
a516830082018411
05948a8105860402
01088a0e000d8710
8402928880028f05
0d3703811c029083
0487038d8c1c810a
000d08850e988e06
8d19168807928491
bd198a0b84858801
8c808e0109058181
83000384840e0301
8707818109070083
05859a000d850683
0103158280030504
0202090e85861008
830b878000058386
0f05870087820787
8081868990058f00
02040306890b8c86
03038c8305098407
0d059d840e828805
89888186870d860a
020b0e06860a0b81
080d0487890c8503
0800040682000506
870086938d808502
060a058405140006
808583080a080383
04099f850004870a
028582090703000c
8b030f830b810c82
8a0c818d8e108c09
01070a0383070287
00078693030b9182
8902028186818008
0f878b8707878581
87068c030a870381
8c8e808188878d81
048f89028c860683
0600010680048786
8101848685830404
820e028486068484
8908818281858e84
86058782820a8209
0003848381800301
078b1183848d8c0b
8605068002000a08
0b0c820205048486
0f800c83008d0200
09050186010d0481
86860601830a0101
8306010e81838606
02048d0601820a08
8587038105018502
0b83028701840f86
0e02030a0480858e
12868582928f0805
0d02890082810285
008e048784868e80
018501878583090d
820a110091050084
0907830603048283
80068b8f0e048184
068781888d800081
8004040202810282
8000090383838b8c
8392820582808005
878009028a8c8786
80870c8988088685
0a038b848507038c
0200898a048a040c
810305018c028785
8789878481080389
8105060407800504
86930687828f8785
838106008d030300
028415858c878285
8082800b8289858f
8585850000090683
8483838004038a88
0600010486020083
0001820883828b87
0b91870a82800f04
8289018004880204
82851c0a01821100
10048f0284810104
0783818d08038983
8587060180010881
0602038081018085
05068c8b05810202
09838e0300890d07
83020f838f030608
07071a0305141d06
0200818e87880509
8d00018001128280
0185070a08930705
8d0401848402858a
8402808f0e018587
038187008d840486
0985130986840a80
858b0e00070b0301
0a0c868c03010805
820603840c80818c
898a000408830e06
890b040002058307
028183890d0b8200
8984800505818081
8283060682048100
8383830485078081
0209098302860300
890086818080028a
0d09000503088089
880a070302808300
0780878484818787
0090068781078501
079583810400880b
11050c8f800c860b
858201028a058b81
04808b84010c0206
170784080f810f02
0003008906068605
0c81850081001006
8988078709038780
8084880200058886
80880403028f8583
8085020d81808581
8005890410078104
0985078086098488
8080068201000d91
0806818707830583
0084010903080703
8b8587080a8b8a09
8803090208840906
8a06088b0b8b018b
098682060b058b08
000601070006028a
8a05068307858585
0b00088a81020089
828b870b0a03040b
83880383038a8080
8083890300830407
8387090081820282
8b85810686078109
8589848280890b82
010b008085038701
06040a0687868405
8b8b86890583060a
8809078709060b04
0702880981888783
8105068903060485
0a090281870a8403
8088070a09808685
0382090a02848509
038b808106080405
900580020b058680
0e8a80008d850003
0801800184858306
850705838b070d0f
8604830508870509
118c0c8415850302
0b0005018383850a
80810788058a080d
8d8184008182918b
8a81060081828d05
080089000b8c0183
078484818b011a04
880a840880880384
1889040604888301
010c0183008e0011
8189830303818105
938a828887839406
01860483840e0205
0481820204840a03
060c04058a031004
8b0a870304840206
1c8f800703880c0e
0382868c00868009
83018c810a00800b
898c0406070a0213
02030a870500088c
028a808b8b018982
828d070091070505
8610058602081483
030404041d040b82
078b040407870b0c
8080870402050507
9a8484878000840d
81808081858d050a
088e8b848682040c
86890b0696880c8d
08010b8481081403
0a0b8287158c8a05
0588018183031208
0180010983820403
a1918d838182830d
0100040888000c09
84808f0c0b0c0507
0a85840b8d060382
84120b8c830a0a87
000b80000f030b05
088884880188140c
9486861185800b0a
979607098184080a
0f0b02048c860183
830a880381090985
0600810f8e071484
0681050385011480
1a85118b21808587
1301090981840e16
8b85830887050009
9292800b09868984
0001840387828688
8405808880010000
010003048a000f85
0204060587811785
1f030a851702070a
8187850204890216
8d80008783860402
a299820109840108
05828f0f8a890593
86038a0505068302
808a090198001500
0a030e118a0a1a00
250502821d018480
0d0280800480050b
9392858707048208
88070681020c8402
8004838105020500
8604070d02820a83
8480030889110502
010107090a030184
0c0180001b010708
0589880d8487100e
858c0b8101050406
8805098100050c05
898a010601058c86
88800a0801008006
8381820982050900
0600090b0b840a0b
1404080323800005
0b868e8701850410
8988088586000b83
8c0d0e0004801685
8983090b060c8988
01010f9804808001
09868200860f0582
0b0a0f0e04818205
18078207250d8416
000e8602048d0d11
9083830082850884
8100888c068a0f01
88050c0085828480
0208838601800680
0684828604008206
800781090402850b
07890e8904008183
0708818203808581
8108008289058f87
88848a0580920980
0410098503840102
8682988687090584
8309058180010a00
0600058287001084
048186028d078482
84850002810c8101
82078a830b809800
8385070383860382
0984020280020708
8081940c88000081
820f818704860105
0206090304830d00
8801080681010680
0203008708048601
0803838481028185
84040a09838a0906
048887878b058905
8700848900858900
8a86878100090880
050b0585818a0605
05098b8782050484
010384080b00080a
0580020980818a05
0087850b03098702
0b01028586028383
8a88898105098882
880b82010b85820a
088b808709848787
02000600870a8485
0389010389030505
09068b870a820704
8684018288028308
0800830a05010701
0982848206068605
840789040b078102
8781870581840a84
0285818587850182
820808040182040a
0a070501090b0008
870a828987170784
07828c8890058084
01018b00030d8d88
8e88818990838088
0708030d81868101
0008128082028301
0100888004021002
080d838387878700
0584818502060e01
85828f82020a0708
060494868c118f91
8488098283828a85
0005028101850e82
00000b818b808403
1388838a82020a03
11828b008e888703
860a0d8104080382
8d03828484070582
850c928280118989
8f878b0302078201
8107858785861d07
0a06000f888a8289
0c88818782868105
0f850902028e8f08
8c08028b010c1088
03868a01808c880b
08059e8007040188
8488058602028782
0f03841783880c0d
83810c86050c8189
03868a02018c0584
8a060104060a9083
880c0b8504068481
858495028908810a
0805a28084838484
858e058506878704
85060a0e840a0886
0a850b04090d0609
0482060605840807
89860c0581019083
8503018880028389
0009840985028882
0207a40088040582
82038206040c8201
0789040682090b0b
86088186810a0683
0586818385001000
8b87050385019581
8911000112180182
80809c008a828a87
8203b28481831602
848d23840e0a8206
8284101c09020184
0606828009800902
0589030083800604
0102048506868603
890e0500020f8285
0500860402070806
0606b10b00860f02
92031d81080a8602
8101031187000101
80110d0a84800583
8d8212030c048600
87868786858b8d03
89058800110f8212
06908c8a01058482
071ca70a05011207
9304140208080802
8482090905000c03
830b840885030203
9480048c0c000287
8e8d8b8b858f8b83
8207020385178485
8d848b0504058988
850597080805820a
8887090308868b88
8784830788050001
0811058704840400
8082830581018602
8b03078800950000
830e008786178e83
8982870280868582
830695840b030108
850005030b058309
8707800905818784
0507040484898291
908789018983040b
028586018a930601
810003000b1d060d
9086828a83010301
84119d860607040c
010b018880048d0e
830c86050b04038b
09130d88808e8388
0280810405188087
81048502038a8186
0b81878007010184
0382058405838288
0280030083810000
800501008600000a
8680828183838b08
0206000010098402
0d03818d07048505
0b82038b87860087
009e810b80021202
898f06818500868a
87040881878a8400
0c81050281839d82
0a800c8b818d0305
128683810f860c8d
8a80860382078182
0e070f0184080409
008a058203090085
0382860a80048703
070204068b808287
8580850487858282
8105820182838307
0889818100820104
08018386108b868e
058782060c030406
8b03010b8588008a
86020b0382830085
83800401028b8307
8b0b010a098b8407
8688068a00068102
098a010b02820a8b
0900888185050985
0183810581880605
0287820102820b85
080a0a00048a0605
0788020188050a85
0287090a87020303
0a8507070309838a
0387880988080584
828201030a860305
83850583080b0080
0709090401818585
850706888a098781
808b860184850b84
04858b090006860a
0101898182000a82
8589070303808785
8882880884010283
8906890504890b8b
1b0f848507080886
8482898483090682
89820b0100868203
8606020a0c830182
018d820307818e02
9081868392848e88
0301020005808f06
0000160787828400
1708880481020d89
8d91888380808202
8382048402830603
0384848a09058802
0c81040088858e0f
8b03830290078c85
8508830704078100
0285068891838d05
120983858900138f
00818c810d110108
0100118b02040109
0186008104018280
838204858e888784
8a078d049a8c8082
070a00098d0f828d
0a80019092888905
1f82050a85888289
9408020609008184
0881090600028187
02840186028b8884
818b8888838e9581
8d0984008d868385
03038b018106008b
070505008804878a
0d13830709868901
8510848603830880
0685828180810c82
0490090180018185
800180028c048c84
8c04058d98888505
0c0180858613818d
810d85878b888a83
101204080409888b
080d0a8502818201
95068a030b11028e
06830a8408010281
8e8a03898a018e83
8e0e808f8b808603
038f8089880c808c
810512038b848a02
8f9a028305880706
00820587868c8604
8509050003830506
8400890c97088385
0c03070086820489
1c830c040d030e06
0082060e8106110c
8c8587840b800109
8f958b0283020400
81088a0685848487
07048d8704810202
818306088d050584
8404070282001485
11030c0381840004
868a820e838b810a
8c0080008404070c
9d9a8d058a01850c
050181018e8b8b86
0a0180860b060c04
068905858d0b0708
8d0f080781090802
1f0900880a84800e
0085008783010b81
88878587100f0510
8b97000d0c81860f
100a870a860b868e
810c068d00060e81
0e8a848485831007
85060a0084021786
158d0c850e098780
1386888505038216
8810920309050a0c
809b0712078e8b84
058b01058e050297
8b04018602800a05
00008b0b93021703
8c04098602100388
1606808415009509
088204080c8a880e
8811970280840907
0597910d0f8a8d81
038690018a0e8d82
9604888889088094
0f8a8305970d2407
81068c0a02160489
1e8381900d819902
150208810287808f
848e0096818d0e12
048382838306148a
8a8300848b818805
8705078380020304
80050081850a8380
8802850900818006
0583818582818900
0704828004030782
0306828104068385
018d830a040e0782
8f87820581810404
08048b8b88050303
1008058190060080
01010c078b830709
898d908805868285
028081018981880b
8500838d89030086
8187088181030606
848a020701040604
81060005840b0084
0787008603810f01
87080001070b0d8b
85010b0487030203
0600838a00938587
088a050584008288
0086890b04808286
0788890701868681
02858387880a8188
89018b8483018804
0187828487800583
8b07008604818b87
89040b0086090986
8607038489080b00
8485858281048a85
87078b0785818b09
0084800684070580
0b028100018b0983
0005080808820000
0b06890a05870684
86850b8082898b01
81040a008804010a
0a08068488860385
8780090a82830a0a
8604890a82090508
8a8885060b8b8107
060101018b8a8586
0984088387060189
8709828201848202
0407888900868381
8786050708860810
8d09088208810288
07041107880d0109
81018a0688800787
0381869205860200
0604008988898706
8903070705068c03
820382850a840884
8706810986048385
80010e908a038408
07031785050a8985
0007800c8c8c0b85
8703098785070885
810706818b8e0282
830501878606848b
0188000b048a0685
0b87078585050b81
80870a8f84858509
8b08068284068e03
110c88818d038084
88810a950d818405
0607838703858309
8c8b0d0004058604
8602880d00020788
0f888b0d85840787
0e020d8183030f85
0a040f83840f0c00
000991848c030f81
0482818508128388
09858080830b0388
9205028201060489
8201030205040f06
0d8a898203031308
80840a8989068285
80050e088a830a84
8104820d85840104
1390068114800a06
8589818303060000
8d8e010309870282
068d8281040d100f
0282800e02090985
0108060106028105
02821b80880e0282
8580850b8a848387
8292828a85070103
03810a0483830009
07878c0785010a85
0480018187000b04
82820a0302150982
8300060404840706
0d86ab0580890982
89880f0111078006
8685001303080b88
0c00878300018205
8802098401830c00
89820883880d8800
850e088586160e01
8285938288840388
0681970484000985
84060183010c0882
058b05068a818087
8507000980088503
8583030d01028602
8d87018585840104
850307890a138104
870192838007050a
8409ae0805000209
808113880f038582
04020109040a0b84
8181860784020b00
8502868207800108
048405008608028a
0402008110141e80
0b8388088a868580
0c86910d0a841109
928b128001058206
0080061109830d8a
8e02808485088306
078c008381810582
018383008b098907
858a8e0b150f2381
81048a0e02090781
080c910b14038202
8d89110989158307
0498068408850685
82160782840d8906
868b090c0c028901
0a88828f9017860c
81878a121116040d
0c868d8516020d8c
1311971008010d86
8a000c008a0e8384
018905070c80138a
841706080c06000e
948401010a820205
8189839e810f8001
878a820704868000
0005010802028e81
0201810a84050200
8883068f828d0487
858703810698828a
8201010c87890983
0105038482058306
05040a0286068581
059c010085870906
8903898504810004
0102078884068580
0206898f8a819594
8080048708048180
1d84830690910083
8c0611850687860b
0d81118606840300
018a0513000e0585
04120101090a8685
060b058502930003
8a8183898601858a
0d0608840b800006
0703058485810181
8a010086048e088b
0104028083870600
0482028904030584
868306000a838902
040b838785000485
8a04018b8b8a0409
8a08070781060106
0101808888078588
05070b0b838b0185
03010207848a8006
03820b8104000004
820483860a85860a
0508830802868807
0607880b800a8881
008a840408018781
8303060983038900
8203840a020b840b
8a07800500068503
83078985860a0684
010882820001010a
81090809890b0501
8184810001018884
0084838084870388
028a080700818182
090b8a0180090a86
0409848386818489
8b93848488828087
038b81038789090b
0584880588818a81
8490800aa10c0803
0c0702000387010b
1d80840105050703
8503820884860506
829681870708090b
91a414908b000884
00048914818c910b
848c808703860083
8d8b080398001704
080a071b0503071e
1488800605030682
000c030388040b06
04a487870e081403
86b009859299058d
8d02921403848885
028c0496048e0205
8e8605849a120914
010387148f80062d
268b060f0c080001
8c12990a8b850108
8394838b02170001
0a0106818709858b
8c05088311058689
800b820300040001
8608898b04888d88
0487880406849102
950901858e0c8486
8802048401078701
0810070581818c83
0a0f81080a038187
838404050c820702
020a84008585078a
0a0f85830a029206
02888b058288960c
8680868796118887
07118787040a8907
0c810d8884818f00
1204838501058486
0089880202808b00
89860e028a8a9002
040f010609898001
07870083038a8703
97058e809009888b
080e878206088682
0c02128e8a028000
131086860081878e
8d8701850600040d
078b0a850a808408
8900898c13038c86
848f800681839005
8c0107078a878d02
8e09868606009187
0f01030482808a08
0c0a090882040392
8185038b0a040585
85880c0905088786
81078583038a8888
848d8881838a9509
8e86840a97068986
0111078c8882898c
0585818080078085
1216820004040684
0380880311038107
0285820182040602
8a0a83850782888c
8789008286899908
9b84090490898480
8a15878c88828484
1606048a03850502
1a0e838a09070402
88870786000a0202
8603070507828581
890305030b038883
8b8a91800081970e
9680828095890387
8b08038400028689
020486848184838a
0f0482828b808389
84880d0111010a04
8902801106828808
0001898a0d8d9090
0885008c87888808
94828c068d84878a
0104848107098e98
02880b0687878490
1720880283018606
8000028811010706
0902010001810c87
8a84010705829200
83928b0201009189
948c89008b00058d
870603028709868a
0a110a0088010388
858084888e0d1802
800387828d02850d
09840685050c8802
8700800212040082
850a000f8084850c
8500058384048984
0406820103088300
0802000f09090d0b
07870305831c0f00
81098c0089820b02
02868a128c059107
8d83078506838f82
0d01090186110a08
06808c0288078207
0a84050280870888
8000888208091982
0384850782030605
000184020b838405
8400908881088585
82058302078b0207
050b8306028a0c84
0301028185838b80
0682058901050883
0588828882000180
068004078a008806
880789890701880a
82030805878a8485
84878883810b0082
8807890286078209
8680060188828700
07080b0b08800404
020a010301808584
85860781848b8500
00020a0607020283
8b028905810b0707
03098a800b048585
860a878a87800801
8b8485880a868904
0401840380018182
8488880386038689
89850209868a8980
8a04840908830200
0b8789800a86008b
048280870a868001
050384830909090a
80090a0804010b03
82020982038b068a
0b8a8201018a8108
83010f010219a284
8080870607880201
02038e8410858001
8107088e0a0d8188
880b820407848605
0e160c8c87020787
0d818a0182100203
8383058880a18406
81080b93841b9b83
828b85898a858000
86039e8810038f80
8284848d00018e00
810f011004840685
06240f828089028a
1480068d80090b07
8681800300998c81
8b81099485028b00
888c878088040684
8f00999f08028505
020202808c0c0504
8423821084860b01
0a2c148a96040486
01010d910c090b8e
8313100707998d83
8286888383938a02
8d030a050587878b
8782260585038381
11108a0a88870b80
038b019205050288
8080800a0000840a
8507888785838282
088c0a870306158a
02938a0b83928200
878215068a028384
038b248284010583
0a048d0b8c020e82
8203018a84068b83
030987058a908404
8806860682838286
05090b0781830983
018f0184838f808d
8906180102890303
8803168902098600
0a04800a8c908081
8d89848d81028b87
00870287888d8381
86020a8404008604
0a87850c02811106
0d91860a039b8c08
890a048b87860283
010123858c058906
070c8e0c8a820086
8604038882810082
8c82838c85808784
8403868501818000
0684018104878101
0a8f8f0804970707
0582018a00828408
03081d868d850200
15009008888d0b04
86008b8d09808006
0305040789068809
0703800685868502
008802030a8b0403
808b8202879d8707
0284168b8d030980
868a17868488908a
0f0582038f8e058a
02818b8a02888482
8d83028688860b80
0783820402818080
060800080a870b82
039303848088900d
89050f8e04058088
8c871e8b8b020082
00029108888d810c
0202838684058107
838b84890182018f
0185888101080983
8400040983850080
09900b8986858a87
840d038206030303
81822190028e0081
0504908704020884
888081080001048a
01828c0d0b078091
0706048386038108
808480050c88028a
8284048a06850080
0705148981060680
838f20878b828700
08848c8a82810403
818c81868a838500
008d0b0f8580028c
0d05840486868a83
038082080406018d
878802018d090100
820a05830e078206
0d8286028b068980
8801038507810102
038083810d030006
0501040c87099300
0384878403868608
058d090488028104
868b82030b8e0100
830a04840a068608
000b800882828212
0c86860882008d86
82048406010b8285
1206008192800489
8c018904868a8087
07041a8d0209060f
008800040080820a
0511820302080509
090403868d028501
0e0c850386898e84
0b00868f0a0c0703
8387028901888684
8f02038a09000c8d
05838303840f0184
06088a8983888005
8405020403078801
098b0a0907810682
840688890b018483
868206000587010b
880202818a00860b
8086048a00038685
01000b8786050188
0289878481020b0b
8b0100058703888a
820a8881038a8889
0802040989840983
8604818588048382
0902850a088b8b04
0686028502898a08
8a00870907018600
0103028b0b878789
060a07040b870a83
888a8906038a8509
010289800588030a
0804848b01028b84
078b00880a0b0801
0a82048a0b058707
860a818883048b88
191d838109098b93
85070401830e8984
8705030909878800
8a8501050a848908
040481090407980a
890a8c0a99840383
820c84050a840985
0086000284818681
06158485840c8107
86010a8307848e05
8a04038888858088
8a0b808b12009409
09828283010c930a
8286800699828288
05050582850d8187
0c82828001808d89
1713880784860000
8c08010402828001
00810d8500880585
9001868f038e9c06
8686818704808a0a
9686010d9880098a
000e018104850487
0b01010602808e89
170f00018282068a
818108060880890a
0589040704808402
0484838304018284
0085848700808588
950e858398018288
0500008289050301
0884008b02888684
1b09830807068b05
89830d8e84030b85
8206880c11820688
0b80040103898205
8485868802048686
9b01840796028083
8a0c84888a808101
0b8284808b848802
1607050481030003
8707840209018806
818b83088902088a
0003020211889083
8180008a87859286
938103079004018a
870187088387868a
810a030288800108
0f0d80058b8a8784
878c0209050e0882
0184078080800983
0d03058215028d85
828d010386078606
8705870a86868990
870e06870102828a
1084828380888c81
1c19060184840889
818a038985088101
0287010202838881
840c0d830c8d8584
8482068b05828c00
8d048a058b828282
880d068601058d84
0b8a018a07800187
0b19818884088084
830281000e0c060a
8a88018781830201
870a098814828008
06910386828c8e02
928d830c8181028d
8410840582118e86
04850d02848d850a
14838902898e0190
0084888500848008
038104828183098b
0789008607868203
8d03058702078d05
9400898486848408
0503818700010080
8204090685898489
098a8e0404920c8e
0180880204050a08
8a82090006800a8b
0a0508888d870805
8181008792818281
850d89808c838f03
0a0a8982060c0089
0408098a01028201
2006890985858b9a
87008d8c83880788
8e81820a810d0b87
040283068e880d01
8d84800a880d8702
91108c8691899905
0103808783140183
0d8606878488090e
8806800204812093
038c050688030c03
830c868803918e09
028b828489828680
0102028407058812
81898808868c0289
890b828885858880
8b0a00800113090e
05898c8c08931484
0381088505830408
0883868307818d02
0202038285068685
84871a008d020800
019309038784090a
0982008d02868501
8889839304100f02
8605030005010808
908c810405008602
8181870184048883
0387800507010a84
890c830181040883
8804060387828188
0d84898203920b05
8b8409028a0d010a
81848a878a898689
030a080308820507
028b8b0a00008b03
0386040181070409
8b08038482048b09
84880b838a8b0407
898a820681048001
8983888b80868287
0807820184808b8b
8a05830a81030688
02038202808a8b09
8b02878701890b02
810b86820a860904
080503040809080b
868a068a8102058b
01088082028b0a85
8686858201858809
860a818087070505
0a8b060107008080
0587018100868287
000a098280878b82
0001840908898701
0b80888102890b07
02878a8186838882
0887008f85949a09
028212820307838b
8582270109820002
040484058d890404
048989840482820c
0c8b040788818181
0280848195800006
0a86810a8080048b
0d8b8100898b9387
00030a0104810381
8a80108d83028000
04008e08878a8707
8503868a8603888c
8290090987800a8c
0401098984858802
02080d1186861201
8382038d848a8b89
0882178200818080
87871f8286818084
040e038706880681
8d87920500820280
008987020684028a
0b86840190008d8b
0204110f87820202
0c86898a06920686
80800c9185820689
8506238790858b84
8384880506900a09
0783879205090105
878d0c088a808489
028201008205060b
0487061000011087
05090600868f0583
8209090503008906
870a248c000a0703
0e03010d02018386
0089849300848984
87990681848b0a85
8785818c05038400
0184880c8501018e
0004860182930e89
05810e8b87808789
858113818a078f08
02878600808e0482
8601018484010406
0791830c08828284
0205918287008602
0407070087890b89
048c0407819a0289
0488088405820488
8287230288088400
0b068c0901880005
0501808885108e8a
078d088582038600
0d0784068009800a
0a0002080d021186
0f89040284848705
0083050284040604
0305220208008304
070a900884858583
8000018801098281
0002018087818801
0408818987020309
0d87080b03030488
8482898404958606
83000b8f87080683
888b150000880004
8484010102840880
820c848d06008c04
8088078503048507
8105028586018703
0902030c04800a8a
838d898606860d83
0082038994048505
800315088c040c02
81048b0109841108
81010a8081828005
000e848583890500
858e850a00820a88
0205838182028804
879487040a0b8288
038c030585858402
00820d02000c1805
838186028403800f
84880289060c0089
83848f028f000804
8996880606088784
8401018301028906
808a8781840b8189
0691098683038304
07090b0888158a82
04818d840381830d
8b8104810e8a8487
850e038486888481
8d02040205080581
0083888a008c0880
888400050680088e
8982800308030386
04080a0784860085
890182108a828084
0402098385898980
88990c0116858381
8681838883808a06
870f080888038302
000a840385028988
8b03830108890701
100903818491060d
0605000d8184868d
8485850600030396
208501081d8c050c
8d87110904029182
8307128e06080784
05030788840c068b
0482020e85020308
838b8387818a8208
8905070488808f02
01080b8300040081
0204830500848082
8882918106008680
82868304860d8383
84038b8280028581
0a880a8a0782860b
800a078a88060988
0a83828608860784
0b80098502848b8b
07000b0084040005
8a850a850b800380
8084030b81818405
8305808689898a08
0789870888048507
038309038486890a
008902030a880402
80830a0889888701
0905860a80898887
88078a8004000a0a
8787048803020780
8a83060208010500
8580800b8107048b
8506060201878682
848200078a890686
868489050908020a
8588068a86888b03
040a83040b080082
0b07860887050789
171702808683078e
8f89860283078305
898a01020a888680
031282851e068b07
0190848a05049801
9b808a0a84808d85
8a07870185858886
040a140493828005
231a80890c0e028a
8d09078285078105
8980080601020887
8305000a10838806
88838384848c9400
8f878a869206838d
8505878286038c94
1206078982898682
100d078005060605
8d08019006080584
01010b8782010386
8102048810010203
0a84800003869203
900200028f86088f
8812818984808b02
810b108781808804
9a8401020383840e
800b05008b800683
8003820806018586
008403888d0c0383
8104040a01060c09
0c860b03188a1382
01800a0908840e02
048c04830800810b
979603040083860b
8604870a00070404
0180880081848106
808803888583068a
848088828e03130f
068301811c890585
8688868403820701
8903028500000580
9894038181880081
820b830000820301
83868d0404858b00
82818503980a0e87
060d820605020d0f
1483000216870a04
828b888282860609
86808b040007050a
849883818c038701
80810b0200890382
068601018d018084
05818381890a0c0c
810701808b030e80
078d040511810a0e
04900080018d050b
8285830789870388
98928c088e0a0188
0688860608088484
0407868103078106
0a058a068a061185
0309018d820b0a84
0f00020a1b868206
84898a0785888280
8002000508838182
8f928181850c818f
0483878304010809
8901820105830986
0a8984048c080980
8d030d8980020b00
18000486108c1102
81808005098e0606
8d03870c0a850403
071184010303098d
8c0706880b868303
9401060b00800389
01020002058e8702
0604020187039001
8402850b94070107
8402860288070690
860b088408850089
150e0e8407800090
03820081048d0285
8c0a040688048188
8382090300838785
858d8a8482878b84
880980009c040882
01138d838883058b
870f129001858890
100a05070a0e0e02
8c00808780840182
80800884828c0004
890f000414860285
0483008308068d8e
8a0b0400a8890784
8081080083090302
8e100491008a8089
8306840a878d2003
8305878095000104
83058b8107810980
008885060787890b
8c020e8000830086
818802888a82880e
028886080b0b8e80
00038010091b8c0a
0a088103019b1486
0f038c0504800680
81948b0487020315
0589108c918b8209
06810a8c0183048c
89808c058109810c
0c89008686038387
070a06830d0d9b8b
0511820588890908
8000028209020803
84038f070d098284
03038c05048b8905
06090204838b008c
8283870004848d87
098a088906130880
0089828809110007
8a06810706868202
010a030087080682
8700898009830884
8683050903070609
0b8388068206088b
8b068a858a838186
010787058b030987
84068885860a8482
0309040280858785
8289840089898906
888202000581000b
0087028982800703
820281088a018b88
0a03888587040503
840089870b018505
0385050581890a0a
8207040682878607
820501870404010b
080686868785090a
088386800a0a0689
8702018004860a81
83080a078b040a06
0b02810285888a87
00090b0a04058b86
8187018101948402
878413098f040a89
8882268404848b04
0380988283800603
078a00970a00878a
0087848304850102
040b028601018681
0a860a0782888703
0b03850a88870704
870604018101078c
84032a8588018705
080685898405040b
8b84808e05800088
018e840b8e828881
0382820380078e85
0d00048582010d06
07880206008e0705
01090f8c83050480
0a81280480838d05
0b06868394900701
0608808487068a07
8500088005828683
00028d8984828e03
05030a0086040f80
80078683050a8407
0082910900818109
0781a883038d068d
0186068108048989
0808831204008183
8507848582080782
890b028507050985
000600048a818885
0311088c88198083
0509010483090580
0c88a18103848283
870501800b090082
8580050d04048380
028903050a008508
8180800881830a83
8a00098700019186
8903020304200283
008a870605840605
0c0ba58501870383
82860306110e1080
04880c0805870981
88858a010b050481
0382848682000d0e
8288800800038486
051186028a0e0288
0a03918081828506
800398060e868281
8400098f0108830a
090a090e03048381
810b0e8483830500
0508868500110800
0304918901018408
8500078601110089
060694808d0a8483
010f92080985030c
84850c8b8f148383
8407831200850107
85070e8202858181
8203010a04808681
03818f01848b8706
020309030a108004
800b880700058580
0003878400840e01
868e808281060409
8402810706860508
01820e8a8400818a
1105870409090e83
85060081088a000b
8482028283898380
0f82120402818708
828515898c028204
0b838a08078a8880
928b868402058a08
0f838d0200810f0b
9006068401890406
8503050882010883
880d0d060d8c8085
0280178008020282
89050e888e84820f
8187988109890502
8281828d03038801
89848a0882800303
9984070080878602
8684840482048200
8a03040b06890506
0b0d058206820488
878411029103130e
848f830a05838582
8582888908878383
8288900083920784
8681068583928c83
808a848102050d05
020504058e010d05
878d838403808486
000406828a828589
8988088204868e01
84840a09038b8d0b
03860b820a870902
1401018a80080281
8403128080858190
011c0c8414030a0d
939e868502070882
02858804050d8005
1282028b82848b0b
86048b87948e868c
0f88068211838485
84898b8585830489
8e080f888c8a0c08
860e8906018a0301
0689088794108888
0c800c9791810082
8e0f068b06869816
0f03020a858a0086
8086808084888387
860b0480038d0a00
8489860d87150183
8003038b03828109
88818a8388060b88
038a0a88090b0601
84018381888a040b
0a01818208818186
84870987080b8084
0a0607058b848982
05060a0a8a010004
858302058a888084
8909848901018603
0288820584048284
8b83860902060202
8582050784878207
8602888483008b0a
80890b8804810b0a
8a040b8787068289
8889868301020080
8b0a828686848209
89898b010b868001
8789808982858988
0905898989820703
05828a82820b8205
8588050b89040902
0308010202038001
1607040811080590
03838286850c058e
8c8d030004818207
0000880614070083
8a03040703049388
93878401838a0004
83868b0881888680
060611858786000b
16048b8205838487
05808a0309028091
8d02880911088d03
0583860b090c8b09
0303028b03158a8c
8792918282008580
8305868581038182
8188080b958a8c0a
0b110a8a1889828d
088d838702878789
8b0191080d18838a
050300830b168582
858905848715978d
84868e9206938904
0c9883918b800981
06910b8687800285
8f8e088786808383
02830a0682000583
0501008586060388
8582088384050683
0701018604810880
1c04848b0789010b
008384800503800b
818b8c8005058002
9098808202020486
0d848304018a0280
85850288800f0602
0388838382000884
81050e078111058c
0d8480060b8d070d
05920082078b0a15
8283880d01100285
9f8c850005818b85
018c05828c89018f
868191878100088e
0187840086820e09
85098200850c1086
1a88868d068d0209
0587070781810a04
8e84020504088503
85888486830b810b
8081858204840c8e
8d05818081090208
88820a818d810885
8000028507850a83
0684040710838082
0284878687868704
8d06078680050702
9293840808068788
050581058401098b
04840689800a0087
8808848387080a01
81058b0509840d87
0a06060201000789
0593820107900903
8b04048405060480
8f86000501810884
0d88078485810b82
81048d890a038509
8606890787828288
0a800b8983811189
030d0a0509080e0c
8294030382870985
8286000982860503
1d10038f81848502
8288088312808307
0485110003038a8a
8303828d12848104
078c81800c80968b
88848605850f8a05
020d85838502878b
160c06868d058d85
1c130a8b84098887
858d07040e048284
0909818103880009
0406818e00898182
028a8d0906008d01
880389018984838a
811080860981848f
0f0c018b85810101
1c160a080786098f
86858a890c800104
080d128b098d8006
040e808d08020689
819386850b888b82
820484029305008d
0314040c00009383
0f80048e8885818a
030a00058c832188
138880010f800c05
0d8a07908b848203
0702050601838880
85008882800f8305
818e86868e8c0986
8410800986890d07
83840786041e8e83
1407828c82071682
1003830309028704
0b000d80840a838f
868c070e11808905
0581129085911192
88898b0d008e0d03
0a0a880788838200
810a048d871a9f00
090b830a03800a01
8f8882861983030b
0385010981800184
0584890607820081
8480008003840885
088186000a01848a
1208838a80960483
838f050c050e0187
8605858389858604
04040002820a8108
8a808a8b05828184
0001018685878a0a
09020a0806058202
880980818a860402
8b89028a88890084
848a868485008806
8480028600878806
8200008005038205
8502810287030283
0702850400868481
8008898a03898080
038b858b04038883
820905050a068208
0789050a008b0a03
0589048809010302
870b8b8a0b0a8388
870b8584830b8709
080a8282890b0507
0683868386858583
0002088387878b03
020a090a82008008
8a8009800a040800
0c85800a84001603
88070a8483058886
84871711010c0404
068189098a02810a
81898287040b8804
058084898500868d
870201918a018780
04870a0103948181
0a928501818c2d81
0487800108848c81
8491040d0d801389
0680018e088a8603
808391830d078688
858b00070a878703
8280868393080188
04890b820b8c0203
839a0b8288021f83
07880f8e88069684
8f8b0f0208008a81
0d0a0293038c8882
84849c010a080182
0c81048a149a8286
1282868385080603
008612800b950882
8111000308190486
8704900a030a0102
01869a0100820982
8f82068106088d84
0209001482080c02
8406018107010187
0d800b0c0201018b
060a070886069507
83010404011d0902
83808a870c038101
0401940f09831301
018504840b0f8085
8487850105890305
89030a8786010104
0c82850a04020c0c
8a8688858503960b
08110587101b0980
87809882030c8a05
0310a10b06041482
85830a0180009106
0c89080986011283
8307048709870503
830789020287068c
0409898405868d08
87010382830b0785
8503838184008684
05158d8901828109
8901038480028801
808189800000070c
0989830304048687
05008b8784810302
828307060781088b
0802008287130383
0203058405860786
040a9183818b8c09
8b000d0684830507
8385810b89000901
068e068304098881
0309860203008208
8909058680038c01
0401848403000408
8200058504010389
800b83878c840504
8084020901010308
090203048a84020a
8801860204808101
000184008a820709
8a09820501838881
078d8105809d9602
890b818200090985
8787208481020703
0407960794950600
878b089380828185
00058b0588038a09
8405018207038602
030108810b010687
09998d0201998987
87090b8706048081
078118878b018c87
08848f048c911184
84080b8508008702
8a040880808a0702
03010a8b81000003
0d8a840a05868003
8987820885879007
880a150604040a83
82901d818504938a
080b860a81910e88
01870c940782068b
810805008d008901
93070407818e8205
8390098508880089
830a86810d06020a
8b8f0b0a83098003
008d09900b8f8083
82048a8a08878d0b
018481008a0d8090
018d880289018105
1580928483070109
84110381028a0306
871f82830b0b8c11
8a88020101040781
0a818e8190918606
128104928903888e
0001061180070099
130d0007899d0387
8481830b84820801
9305870888010481
8219040b85048b83
8996080690008701
0288828c09820484
02060093818c960b
808009030f058185
07098a8a8e808387
8b8d91040a030605
908301049180008a
0304038304878686
890301810a820508
0305848b03800080
8300068807878185
018b030688008405
09038780038b8809
87050b8484870b07
8409070b89018004
8385870708030502
8a82068786010081
0704050082048581
8588038108050104
0684808482818507
05820a008b890085
8403808501890509
800085058703850b
8889058784030605
0006048504800a07
0b87848a8b82810a
8a87878803080080
0a04848b04838480
040a000406090302
86038286048b8384
0b840083840a8302
0a800582860a0909
0507888c92828002
060182020801098d
8713011103020304
0183890882870601
080304008d880286
018600850483080e
890888810707090b
0a010d86028c860f
1381868b98068207
8180070803828087
8e09840089000705
00040c0f88880185
04840a8910870603
0208860309888013
84018506020d0306
0d07028707028710
068c888e988a8200
8580028311060182
8e8305838b800506
000580118c860402
1480058b16098202
0107930485040806
0282818086091086
1b140d0403870385
8b0a8d8401168707
8a8580080c050b80
04878001158c8e86
888a010201848a0e
8f87830193048082
8303068f08018189
02040f0500850106
0809020a09878804
0001090406058107
0506830a080c8004
8287038415028503
8a8a858000098683
8e03098686028581
810106830a02068e
00820f058a878003
1e1d008001088a81
88028687040a0580
0b02810989090c04
02808005148a0001
0782890502809283
8c84858195038886
0180050a0602828c
0003848c87008500
1101020303020b80
8702078309010d01
8109000683868081
0606090787880700
088203860c818306
8881890a9f809003
030f82818305898b
0e03048787078202
0d0d058e068e0301
8184058b05850284
0005820307868502
0185838509858281
030107870b83928b
8b8982028d808b05
8901038400040682
0a0102048206868c
0c800b860b81078a
0403008c0b810a87
8206828782870284
8181850102848906
0801060682879104
0e87008584858383
89040001830b8a87
0c05019286830085
989302898406880d
8401070f03838386
818783828a800483
8c020686940c0c08
800882030b880684
0005028609820203
8304040882060081
0285880882840809
878a8b0584828f83
8885048201050303
0a068c888204040f
8184818485038609
0705040000870408
0c000b8a02830885
8b01858485818381
0306860304120885
88048089070a040d
8a01030608840483
8903830203030406
0489051190020000
8c030b810a07020c
130707830b81850c
048d82010280000b
89088d080d040008
880800098008210f
9082070189848589
050b8c0287898580
8e80038193040401
8304030b86890484
038c15898c0c8201
0781818285148004
0a0d0009871f0981
84098a891431100f
17130d0002000911
8b8a84840580120d
8506098d0001140c
118a0f0103840484
898b058107830a11
148d050a82818280
868505060c220c8c
080006830087090d
910288800d040c00
8388850404890092
8a0c88868786820c
8400850604030f8b
8089870905010206
18808781000b8180
808b888909178001
030982810b838508
0082890700838008
0b00068a8289050a
03838b81040a8583
8109848783880505
0407820009070987
01088807028a8706
0885058283088208
0b0806078688000b
080188040a858200
0705870602880683
020002858a040580
85070a8502020b8a
8805860900818903
828a028303890401
000304850b868181
0605090480058886
0288010001038484
0500878289008502
058084050486820a
8a848585010b0001
80890a8603038787
890883098b040806
0985890789038a00
8402038a0a240e8a
81818f0c88818808
02038c0c10830308
0c0913811107028c
0005800404058307
81158b020d0c0a07
07848a0482011388
8e810a020312840f
87038483830f8c80
04888d1103818789
07088c0a08850184
0806108806078201
8302048001810e0a
001c0285890f820d
0688020387151083
8083870d8e0c9204
02848793030e8e8d
058a828308808588
040e8d0c17018981
0891008a040a8581
0b80070606020b01
0718830188810608
8802048a000a8587
848106038a849e83
02920204819e0500
0400108b81088406
8387138005858a02
0c0f8f0f8a8d0c82
060188800406840a
0481030987878d82
0391030287830584
8380040283810283
028c860781941209
81030f868189888d
8507148107080605
850b880f868f0a04
808387870380018b
8105850182050305
038b8b0385028502
0401018582080101
018f040580a10703
0200098202060282
838c0f06860a0208
0004801002858486
8c818e9002828188
858a030800850988
84048c0583048981
838e8b85870b0201
048706020a918180
00090506030a8c04
89881502870c8008
0607920786860608
888680898105828b
8484900801848785
8607880386870181
0080008908008081
0984050786868481
8e800d0686840283
800516040802830d
0a038386820a8708
030085800a030587
0b88850688000b86
8800038487088389
0786888980820682
8680830a07899301
8f840a87850b8a8b
80090f8185098685
0104020187828584
808a83870a0a8702
0082860887038980
800d058182018691
0401818700008700
8307838581068087
890484818f800b83
0600980009830702
8886848a890c8604
8382051105850501
80840e8a8b080480
820180018b020982
0b80898281018906
8205828a800b8382
048a06088404870f
0600988683800283
878a098003000082
0601020f03810607
8184858883828205
8386008682080d85
850108858a018502
0509838688030586
8284830382020300
8601990803840d86
8b02828107010709
8201830903030307
838d85828b818383
088b0803840c8487
88850d8688829701
0f10010f96810084
878303858281000f
0382858381828208
8f09051288828b08
848105071101880d
8c80898a8b0f0d8d
898f1c8c84828e03
9306810f800c8a84
032007920f020480
990f80849a081500
098d060b0c158406
0988060c8180910a
8b0285040908039c
0f8a8a8290169906
8e9b0406948e9396
9710930304020d86
8918968586030203
040680079602860d
82090d8708030102
001f8a0c0a839b83
800083008d080584
02048a91848a0005
8b8b12820603830d
8b01060e83110a08
0883048b05828480
8001850605830306
080a0b810b0a0984
848b0b0b03890909
8682870886868a87
838a86880703810a
000307058a830189
020b8b8801060385
8680858701850186
0183898401018a04
89860b8706878b0a
8687028205870203
8701060b84828004
000a830403838608
0283010509078387
8382018600840185
8489038b81020982
0807078a8a0b0001
00090b81850a800b
0a8b0583818b0b01
0780810502870682
0406050503818106
8604078586840708
82898588870a0989
0a09818b80030785
86858b03070f8385
8a010805058c8782
078106060605008c
838d848906878302
98868301900a8281
8500838a820f0081
0c88808d89030006
0d15078403890480
828a01808404030a
81850a8302818888
8580098202858b00
0201050200069302
9000850884080102
0710008206818902
06838300008d8380
1008880682840083
858c008a06088904
8705098582000200
8808078613009286
020280020a819803
9b80058683098482
0a010085030e0085
0c80090506028082
1102008108820b90
8902818105058610
8781040608878183
820a038b14058987
0480838103839107
008d898681840704
8680020980068b89
828703888d028304
1409028682818703
8b860984070a8102
098b060209850701
888401050d8a8108
860188050487890d
918b8f8486000483
8883800089818804
0086848305050004
1b0809848d088584
8c84838b80010506
8a00830404060c85
0782040905800082
9084850388008900
8c85810b96850f04
0200828388028e85
0681060409078b85
9201828680878e04
0a0583108185038a
028b84898b840105
058a828596090d87
080a840800060705
1187010402838086
8586028703810112
910901860a05040a
9e8e8082840a8308
8003830701828287
850000808885818d
858b03068d0b0587
810d0d8000031508
1101828012020301
86098208868a0112
9106890307071080
9e8b89008a810804
8001858601030b04
01048e8085800401
8492858687020781
0703120687051107
1603048306078413
0694010907860c07
92058e0106090288
13048b0e85810c8c
8492858086020585
8905868309028486
8082850619008a83
8e8f018b81029309
9103028087078380
8606028003128a01
0f0a80070106860a
158200850601028d
8a89088e870a8106
80058b850d848380
8682090503848707
89898a01010c8687
8f03840996820984
810280800c138003
0205868486048e04
150084851204078a
888706000e09050a
89018086000a8785
858902870f8c9201
8e90020200008984
8d80018192000404
8208070381058687
1114840985038382
8a01820882081c86
0501820880831204
06818682830e0303
0489940a84810184
030580148a0f0487
028e008885840b05
8b04830f8304850a
0509818384200d01
848c890a838a1996
a488818515800481
040e198680838789
088f0e108b830380
808a1e090807809b
17058801068d030c
1b069a1b00940200
0a090086821e1f04
8e89048498030188
028f020a8c088504
8108060b80070481
04859108088a8492
87858703070b0b8b
828285058900858a
0b808a87038a0c03
8b870386931f8405
888b870b03860a88
8685048287028786
8783820a0b060982
07010289828a0107
090000800b880a0b
0882800488048600
8a02078b0704888a
0709038a80828203
8983850408880688
0b80868005048705
0506830b8a818080
880789078501860b
0686878387080188
8980830a0b8b0786
828a818581098982
8886810086858201
8a88008608078888
8409008403830587
88860986898a0386
02888a8b88068486
0b83880305870706
8585070b040a0909
0a0703078680800b
800a858782898201
0b8088028587000b
05890f0b85830080
84061a8705828284
0406900489020505
0081858c80098a8b
81010307008d0285
8b068c89808c0404
8685018b84050080
808a8584819b850d
03080b8d8a008103
02001f8709818601
09858b8689050507
03060080038b8a01
0384818389858380
8508030404018b00
05830300848d088d
880104828c8e0502
0208050380868107
85891f040e860201
05068a81898a8707
0189850000818681
8589060780858303
8302038384000285
82060981008e0107
028a8880888a0301
0583080589878a03
0604100685858405
0980000284030609
8386858707068885
0a04020b06050789
8301870184800106
81028382038b8701
018c0700858e0c03
8206060483050600
868517870a008205
1401850781870905
010402088306878c
0a8b060502930080
818a908789808c87
01030806028b818b
859007828a940601
8204048092040086
8e031b8a09098982
81808b8704020789
8b0a038581800500
0201040d008a0486
0a8490888a078480
8007000b088b8486
8b0e0a81030a8201
82058a8082008586
0b079b87098e0004
9787088d07068485
810c090d87810707
0604080704040705
0308040a06050a01
848505818a019703
8e07068b8a0d8304
8308860a0e040700
8385918387808083
88040e80000a8c07
8105830001868081
82060d010706038a
0401090207048507
020208028c838682
8005808985078e88
838486020f008909
06079d08828a0680
8586138a09800388
0181810a8f070b02
040208810e098002
05058b0b03880382
83020b8105828e80
0c008187068b8b08
02020b0407880208
8884240188008404
0a068a8584050883
0689859507830089
038e02050880838c
8306028985808808
8607050301860201
0f8e838704858587
8383818c07808601
8102140302000305
0c0c8d8e898a0300
0981038b02080305
8e0504040086828d
0e09830486800686
82010b0382030389
0f88058c89910300
8f07050002008084
808d190408040802
0f86918182890006
8489859285028404
038b840683838000
07058e84838a878a
0003810885080282
8f15840302900504
8982068403810781
0382050182990381
8b8a830a058a9402
828a8e83920d1392
038d0f08070c0111
0c858b0489840381
890b020a0b880884
8f148c8300808c07
8922070801858482
000d858c8c848609
0906061001819a8e
010b8f1103018501
0f0b10810f8f8b13
8e8f8b0886840008
9807a18504860309
03208d0298838c00
830e000b81058287
020a8d8282960686
088500058d879685
87010b8110910284
120c0a888f118e0c
91868b0a8482080c
88860007848e8508
8b08888103018188
8402890481028709
040a09808a840788
8884818001060a8b
83088105808b8a80
0004880383860a88
0500860506040585
8b80090803078105
0907850703030703
0101878a07818485
048804860b848000
8901010989008582
858889868b840b04
8509850582848706
01808404050b0209
030803008b8b8108
8881890b82838006
8907030a0286888a
060409020a888984
8a00000607030307
0305020909098680
00870b0a07850283
84840a85850a0101
0987858b070a0303
0b02800081858490
888389030180880e
8586840507080188
848407820a8e0000
03888b030181928a
8381010397018504
880c860483058c8b
150487850401848f
1d01050481058381
8782078c06088301
89820a0804018585
8904090484808381
038d8e0200828800
8a0282878702078d
810f880586838790
088400078f838388
0a16050802830790
8a0802030884870c
09860c0085888304
870b0a0780918189
8201020205828c00
96078b848203018f
0b0980038201838f
080a060683868187
071408068003868c
85020003870a0209
0302080a0a868502
010183830a038383
0087880406048d80
80060408848f868b
8300068104018487
0b84070406878507
1608030885068300
8801030110040682
08010c8280848b80
020d0908038f0200
838c048984098a03
8705000283010385
0283848302059181
0606028100818b03
1209088d07848685
07008a09890c0901
0503000202088585
040504038287038b
0803868603079189
8607860a958a018a
80050182850f0281
0508008981060200
9188090b03800610
0680020802010383
8385878f83870002
8004810d85890980
8680818186161286
86930d8a0e0f0209
03000d0280078114
840c8b8206070104
939b860b07898c11
0a88040000018989
050007948686020f
8204078193850e01
8508898100021482
0c8813821b138380
888f0a0682879080
8f11840702010204
8b8f8f0c060d0905
0d8383818404868d
0302848380030609
0808888598861101
820386020e080a8c
0e88060014880003
030a0a0f82830500
0301838683008204
9790000284808301
120005818d880000
87008403870d0183
838585098f840b84
0f0a000405851287
0f8502810d04000a
07000a07808a0819
9a8c808205860880
909f850587098280
820905148c808388
8c08868581000101
07820481830d1082
09120181810d0682
1002820b11878207
038a07048b8a0913
8f8588000881860f
969900038307020e
0d0b800b01018382
0185008781800087
0a8688038c830703
0111040302801b84
1f000a811e828502
818006858b840517
9180018104850d0a
038604199788140f
8f100c048f818487
058a8f0503018b82
820481068006010c
0281901d80030482
828a060383838907
0a84810a82061103
09068787932a8781
8687038105b01311
8381100002028105
048784938002058c
02070406008c8013
06880204050d0990
898610818d940682
200281178a84880c
848786030817830f
038f810f05868813
8716870680800180
0384858286078990
8e12880888968d81
0185800c01818005
0f978b0182890083
100189170512088a
008b878e001a0103
8588088004048708
800b05068b828785
8289868008010800
0280890586880208
0401050106028b00
8702090403868102
810b8407898a8101
8887850503840187
8706080500830489
0704070b84800a85
8780890702888108
078a010286070406
8704898004868105
8586828901028402
0b860b8683070181
0a800a808380018b
838906008786050a
0701850a04050907
850b8a038b050602
8783078383848687
028a8589898a0b88
030b80820a878908
8b0706850a850204
878b06080b880906
0b89890a8492100d
8684150402068180
8c841f808b808604
03858c0488930601
898081910f070486
0284850103870c8b
000804838f808381
080002000d8a1485
078b068382900501
80800f068a010309
01811e8909098600
0400830403870d01
008606870d028281
808483848c870f84
810108808a818b86
0b04860c85840608
03838d8607979084
088406858a00060c
87821189820a8101
0c0a8a0c8f8d8783
0309808981878d01
0409830486868983
8b0980818004818c
03020a8383950d03
8782868a82950406
830a038800008f01
848616800506818a
80018002838a0302
0381050281808983
010d8581858c068b
9007830001810500
8485820a068a030a
8c89000402978186
8501050501010601
8b88138305028887
08060189048c0906
8c00028088898689
8401040c028b8000
8601078382888b05
858983020b8f0f03
00800385858c0683
0604808986868609
02031a020c038284
120082818e8b8a05
888286010a020481
050c04860390028e
888101838a01038a
828a80800b970405
04098d08830e8481
0c0e8d0305858003
0a099282058f0890
8c07158e8d00008e
01840a0f058a0901
83828581820d870d
12840d01040a0a09
910c850984110305
861080010d038c01
0b04890586068209
04058a03118d0591
0087068001010087
0d0c0d050081850d
8a04018804078c17
0902000181020182
0401948e800d8483
8b0d84080a0d9780
05878c8506818186
100f8d08038a0780
9184060580100706
0c81080100840304
8c0802080b198514
0405868486850b02
06818d948f0f0882
890602830c1d8383
0e81838182048089
000aab000a020d84
85800d0009808804
8605090d86810805
0901040603858086
8b82840a81020c03
8f848c8a890e0104
87108500020e8386
058d8c8404078604
050eab060c808005
0283078208008081
8305010380810b09
07088503048a8102
088084840202100b
86818d82880f8984
850c820b07130881
0a018a0400808189
0b04a70b81001105
858b0a020007880d
82020a19038d0188
0782840800840183
02000c8186860008
0404828a85048f01
0909098c020e821e
8a060f8202038381
0602058008908289
8107809212028d06
05801c0285870081
949a069005800e8e
0888118403090200
8f8b86060f8a0210
0d03800e131a0607
908e888314860e04
01018105058c808b
1787079f95088b0d
000801800b8f840d
8d11028001888b05
158c0409938f1402
9683aa8d050b8c0b
000c8583140c9413
07800d801e039185
0d0c8082100d048a
87878b8e808b938c
0101000a88068302
038b868208830485
168e168e03890e06
89898e13010c8180
830689818689098a
0b84018b86010a08
83898b8904808604
0206880286850983
83058a00850b8b08
8487858007870309
868184088005808a
810303080787018b
000b890483840601
89820a010a848688
0085098a0887058a
888981040906800b
87808289878b080a
030087070a068409
0b0281830b89050a
820b008681080300
048b09048b03030a
060186898385058b
0385828b03818806
018287828201000a
83008a0b8a070407
888904048385868b
848b00048501028b
0607868b8a800989
82a0818400840985
8006078380810004
038a8c848b070686
8c8705088f090a85
838003078580040a
0188010629040882
128b0a8305030a00
8a87840c86008106
00ac850002800185
0810818285018308
8781829203030882
8081020983120703
8401038004008401
160b00001c808d85
0e00048a01880003
0784878a05888602
81af030488010002
0403838287058c02
878a8787020b0a8b
0a83010787801700
8a040208890d8080
1508838614878c0d
8190858601870201
82888d8109820684
181a888a8101828f
87848709030d0a05
008303820f8b8d81
88870582810d848b
8a8d8c910a8e9706
9182000887018781
8e0701828582008f
0f8a0a8283028181
0617808382020883
83860b930f801117
0189850107838485
8089810016869483
0588888588899181
90838d088d88800a
9004020500038484
0e8804020107048c
12148a838c858006
8c83078705810c19
1100820c08088c0b
068386030b8da28f
8084039101898882
838187069c820a05
8d8c8b8f84818382
0005010c84828488
8402898301028108
058506118402000b
8985860989010284
8701018a8a130d80
8708808686020483
0c89838e15820a08
848b8a0587880881
028c8e8180030107
8982018d88098305
070605110a020109
8f00820280808087
838a86858b060d86
840806818a030a0d
0b80888605850701
8090878102800409
0496968b03000409
968780888d81860c
8008840303060109
848b840201060e8c
0385010b8c0e0e83
8a0a08008f830b09
8483008082840c09
02908e858b860507
899687040d11800b
048300878102828c
8c068305820b8186
8603000286888186
8509808581808900
87018d8182048c81
9a8705818b048a87
01078502880e9080
0c04828a858c8b07
130084010b088090
9102808000108c89
8780018b05060081
0a86808e0c820383
860383068d8c948b
8b84040c860d8288
0d01838682808607
0c04858d81848681
1506870706168887
8b06028880080200
038501808304898a
86840e0310878482
828506888389998b
9b028a8283880380
1280838b05080603
0712918a0b91030a
0d8884810b8d1703
80870d0882800783
13878c8502068d08
8100870205020101
8701870b80808795
0f8b088e020d0987
0f048d13820a8a0a
040e0b9101289582
82869112130b0b88
0988898502078c87
890b06928b080908
060886171f0f0c80
0187008c0b010c8c
0e859006829d0706
1914821b90890008
098c04828f299989
108c090382858b00
8999030583030504
018309160e000c0c
000181050a09808c
048c890404068b81
828f8a0084000980
121085028f8b8200
8a910c8392218280
840a840305058404
0909888781090787
05820489088a0502
8185830b09098007
8885810304028805
010409818203098a
0406890809078b83
868a07088b868481
05808a87828a0b03
8183060a80030a0b
050b870388878684
81040b05040a8287
068a810989090702
02860306828a8008
060b81830b030583
078806860a060b00
85038a0701850401
80028408858a8803
810a8786080a0106
03808a8b020b8988
818806050403048a
060a0301078b8809
01068a038180830a
858088800380850b
8a010404870f070a
0485028804098988
0b08a38786040800
89040f8b84078503
0100098588888303
8101050088808104
058586880a808205
8600848989878b82
0302818600110109
878b888004870181
8502978302000981
0508009485028900
810e0b80848b0001
0a0d01928c070303
0683888409000800
90800a05808a8609
8503018680070408
868d830680820580
830796878b850b83
0381038982098a02
88808f820801000b
020c0d038b818103
0584028103118b88
8a090c8200919283
00878a838a97940f
8581060107830485
86041c8b82068300
87048f06888c0402
888384010b89080a
0b9703848a820886
92018d84838b070b
818d0804088d0487
0c8a019389918d00
020813860d048b08
828e168c91888301
008b8f8589870686
8486920600890186
108a048905018681
0b008e8286890283
8c85100301890801
0b8c058f8f89918c
8208190501018687
8f8c150086910209
81828f8080838588
058293818200878a
818c828481820c83
168900008b868002
8108030e079d0b83
88040184860c0b01
03838a8709078c89
0086970081060005
8a89048702038804
0a07050402008002
0b05028c8c880d83
0903888682010401
07010b84088d0082
890a0b88030b1b83
838703810c800402
018e9c0380038183
8901048603808783
0a8b83850085808b
8080868a088e0804
808a878588090400
88000e820b8c8086
