0881058300818580
820201000180878a
8080800703840501
0000818306820280
84818500830c8701
8408820d00800082
810600008084028d
8201800400020101
0301880684800802
0582830206830403
0080828002008200
028906800c830180
04850b83818b8301
8189008200038386
0083818501808301
0484010004838201
0380800003028383
8000068388090105
0100058587028201
820b810489068281
0481860004818082
0401008b80830407
038100048205030c
8102808480010081
888c850506918180
8496838a0a048587
0584028609908105
9604858393848080
87828b850e098084
85048383800e1f03
0a049a8981168581
9305848002881902
888c82058c858087
878c0501838a0401
018502020a0a000c
8e04028b86058500
8285890305800306
818c8d099d87860e
0488840288068c02
94829d80890b860d
02838886970b8489
089d818710840d04
8d02068e8b8d858c
8981858a89008880
83080e831a868083
811a830683080680
038694828e0f0405
84038c07040e030a
05888306098b0506
8802828b04898100
80098b8107880007
838b810a80830988
0688800585858a88
04078404878b8000
848a810300870706
050601830b050808
8887878280070908
818b810282018303
0107838800838100
868b810783838605
8605850500878683
8307080507080189
028685820a088b01
83840b078688070a
008682870384858a
8689030a8a87068a
018586850b078683
0b850b0701878306
070706858a86028b
02880385098b0880
80038a8304020a81
08068701010b078a
0b10048484838a03
8800888806808185
0784848409808a8c
840a808b0d85878b
0389858108859206
8c82820b95078389
0505868a84838194
0d84078502018a85
170e890182058408
8607820702028280
850804850b828783
858985010b8a8380
8a81810200039382
958b01829f820403
8b1307058581028f
0c868282048a8e88
1a1504830e898701
828a818503048a00
8705068281878306
88000a8c11888789
038b860587848d83
8f88008488860781
0114010605858d89
0f0304878b058502
86848c0080890506
820689860d080403
05858588018a0409
868a8192838b9584
088c868b06028205
060886028b880189
8104050101811084
0902840683848401
050b950501880580
0802878a25818483
0386030209848503
848b008484808d00
8186808f0b10818b
0280078497938383
8c03068985830902
1206030883838384
8f129201850b140e
1909808513038013
818d020886810014
8d8c8789808a9606
118c858703000383
058280008e888386
0100030a02838680
1004008280010005
121501018401008a
8280848586018586
87890388020d0201
0305818f14858f03
05920e06888c9588
94008f0b8a868580
0000000000000000
ffffffffffffffff
0881058300818580
820201000180878a
8080800703840501
0000818306820280
84818500830c8701
8408820d00800082
810600008084028d
8201800400020101
0301880684800802
0582830206830403
0080828002008200
028906800c830180
04850b83818b8301
8189008200038386
0083818501808301
0484010004838201
0380800003028383
8000068388090105
0100058587028201
820b810489068281
0481860004818082
0401008b80830407
038100048205030c
8102808480010081
888c850506918180
8496838a0a048587
0584028609908105
9604858393848080
87828b850e098084
85048383800e1f03
0a049a8981168581
9305848002881902
888c82058c858087
878c0501838a0401
018502020a0a000c
8e04028b86058500
8285890305800306
818c8d099d87860e
0488840288068c02
94829d80890b860d
02838886970b8489
089d818710840d04
8d02068e8b8d858c
8981858a89008880
83080e831a868083
811a830683080680
038694828e0f0405
84038c07040e030a
05888306098b0506
8802828b04898100
80098b8107880007
838b810a80830988
0688800585858a88
04078404878b8000
848a810300870706
050601830b050808
8887878280070908
818b810282018303
0107838800838100
868b810783838605
8605850500878683
8307080507080189
028685820a088b01
83840b078688070a
008682870384858a
8689030a8a87068a
018586850b078683
0b850b0701878306
070706858a86028b
02880385098b0880
80038a8304020a81
08068701010b078a
0b10048484838a03
8800888806808185
0784848409808a8c
840a808b0d85878b
0389858108859206
8c82820b95078389
0505868a84838194
0d84078502018a85
170e890182058408
8607820702028280
850804850b828783
858985010b8a8380
8a81810200039382
958b01829f820403
8b1307058581028f
0c868282048a8e88
1a1504830e898701
828a818503048a00
8705068281878306
88000a8c11888789
038b860587848d83
8f88008488860781
0114010605858d89
0f0304878b058502
86848c0080890506
820689860d080403
05858588018a0409
868a8192838b9584
088c868b06028205
060886028b880189
8104050101811084
0902840683848401
050b950501880580
0802878a25818483
0386030209848503
848b008484808d00
8186808f0b10818b
0280078497938383
8c03068985830902
1206030883838384
8f129201850b140e
1909808513038013
818d020886810014
8d8c8789808a9606
118c858703000383
058280008e888386
0100030a02838680
1004008280010005
121501018401008a
8280848586018586
87890388020d0201
0305818f14858f03
05920e06888c9588
94008f0b8a868580
0000000000000000
ffffffffffffffff
0881058300818580
820201000180878a
8080800703840501
0000818306820280
84818500830c8701
8408820d00800082
810600008084028d
8201800400020101
0301880684800802
0582830206830403
0080828002008200
028906800c830180
04850b83818b8301
8189008200038386
0083818501808301
0484010004838201
0380800003028383
8000068388090105
0100058587028201
820b810489068281
0481860004818082
0401008b80830407
038100048205030c
8102808480010081
888c850506918180
8496838a0a048587
0584028609908105
9604858393848080
87828b850e098084
85048383800e1f03
0a049a8981168581
9305848002881902
888c82058c858087
878c0501838a0401
018502020a0a000c
8e04028b86058500
8285890305800306
818c8d099d87860e
0488840288068c02
94829d80890b860d
02838886970b8489
089d818710840d04
8d02068e8b8d858c
8981858a89008880
83080e831a868083
811a830683080680
038694828e0f0405
84038c07040e030a
05888306098b0506
8802828b04898100
80098b8107880007
838b810a80830988
0688800585858a88
04078404878b8000
848a810300870706
050601830b050808
8887878280070908
818b810282018303
0107838800838100
868b810783838605
8605850500878683
8307080507080189
028685820a088b01
83840b078688070a
008682870384858a
8689030a8a87068a
018586850b078683
0b850b0701878306
070706858a86028b
02880385098b0880
80038a8304020a81
08068701010b078a
0b10048484838a03
8800888806808185
0784848409808a8c
840a808b0d85878b
0389858108859206
8c82820b95078389
0505868a84838194
0d84078502018a85
170e890182058408
8607820702028280
850804850b828783
858985010b8a8380
8a81810200039382
958b01829f820403
8b1307058581028f
0c868282048a8e88
1a1504830e898701
828a818503048a00
8705068281878306
88000a8c11888789
038b860587848d83
8f88008488860781
0114010605858d89
0f0304878b058502
86848c0080890506
820689860d080403
05858588018a0409
868a8192838b9584
088c868b06028205
060886028b880189
8104050101811084
0902840683848401
050b950501880580
0802878a25818483
0386030209848503
848b008484808d00
8186808f0b10818b
0280078497938383
8c03068985830902
1206030883838384
8f129201850b140e
1909808513038013
818d020886810014
8d8c8789808a9606
118c858703000383
058280008e888386
0100030a02838680
1004008280010005
121501018401008a
8280848586018586
87890388020d0201
0305818f14858f03
05920e06888c9588
94008f0b8a868580
0000000000000000
ffffffffffffffff
0881058300818580
820201000180878a
8080800703840501
0000818306820280
84818500830c8701
8408820d00800082
810600008084028d
8201800400020101
0301880684800802
0582830206830403
0080828002008200
028906800c830180
04850b83818b8301
8189008200038386
0083818501808301
0484010004838201
0380800003028383
8000068388090105
0100058587028201
820b810489068281
0481860004818082
0401008b80830407
038100048205030c
8102808480010081
888c850506918180
8496838a0a048587
0584028609908105
9604858393848080
87828b850e098084
85048383800e1f03
0a049a8981168581
9305848002881902
888c82058c858087
878c0501838a0401
018502020a0a000c
8e04028b86058500
8285890305800306
818c8d099d87860e
0488840288068c02
94829d80890b860d
02838886970b8489
089d818710840d04
8d02068e8b8d858c
8981858a89008880
83080e831a868083
811a830683080680
038694828e0f0405
84038c07040e030a
05888306098b0506
8802828b04898100
80098b8107880007
838b810a80830988
0688800585858a88
04078404878b8000
848a810300870706
050601830b050808
8887878280070908
818b810282018303
0107838800838100
868b810783838605
8605850500878683
8307080507080189
028685820a088b01
83840b078688070a
008682870384858a
8689030a8a87068a
018586850b078683
0b850b0701878306
070706858a86028b
02880385098b0880
80038a8304020a81
08068701010b078a
0b10048484838a03
8800888806808185
0784848409808a8c
840a808b0d85878b
0389858108859206
8c82820b95078389
0505868a84838194
0d84078502018a85
170e890182058408
8607820702028280
850804850b828783
858985010b8a8380
8a81810200039382
958b01829f820403
8b1307058581028f
0c868282048a8e88
1a1504830e898701
828a818503048a00
8705068281878306
88000a8c11888789
038b860587848d83
8f88008488860781
0114010605858d89
0f0304878b058502
86848c0080890506
820689860d080403
05858588018a0409
868a8192838b9584
088c868b06028205
060886028b880189
8104050101811084
0902840683848401
050b950501880580
0802878a25818483
0386030209848503
848b008484808d00
8186808f0b10818b
0280078497938383
8c03068985830902
1206030883838384
8f129201850b140e
1909808513038013
818d020886810014
8d8c8789808a9606
118c858703000383
058280008e888386
0100030a02838680
1004008280010005
121501018401008a
8280848586018586
87890388020d0201
0305818f14858f03
05920e06888c9588
94008f0b8a868580
0000000000000000
ffffffffffffffff